<unk>	0
<s>	0
</s>	0
<pad>	0
<0x00>	0
<0x01>	0
<0x02>	0
<0x03>	0
<0x04>	0
<0x05>	0
<0x06>	0
<0x07>	0
<0x08>	0
<0x09>	0
<0x0A>	0
<0x0B>	0
<0x0C>	0
<0x0D>	0
<0x0E>	0
<0x0F>	0
<0x10>	0
<0x11>	0
<0x12>	0
<0x13>	0
<0x14>	0
<0x15>	0
<0x16>	0
<0x17>	0
<0x18>	0
<0x19>	0
<0x1A>	0
<0x1B>	0
<0x1C>	0
<0x1D>	0
<0x1E>	0
<0x1F>	0
<0x20>	0
<0x21>	0
<0x22>	0
<0x23>	0
<0x24>	0
<0x25>	0
<0x26>	0
<0x27>	0
<0x28>	0
<0x29>	0
<0x2A>	0
<0x2B>	0
<0x2C>	0
<0x2D>	0
<0x2E>	0
<0x2F>	0
<0x30>	0
<0x31>	0
<0x32>	0
<0x33>	0
<0x34>	0
<0x35>	0
<0x36>	0
<0x37>	0
<0x38>	0
<0x39>	0
<0x3A>	0
<0x3B>	0
<0x3C>	0
<0x3D>	0
<0x3E>	0
<0x3F>	0
<0x40>	0
<0x41>	0
<0x42>	0
<0x43>	0
<0x44>	0
<0x45>	0
<0x46>	0
<0x47>	0
<0x48>	0
<0x49>	0
<0x4A>	0
<0x4B>	0
<0x4C>	0
<0x4D>	0
<0x4E>	0
<0x4F>	0
<0x50>	0
<0x51>	0
<0x52>	0
<0x53>	0
<0x54>	0
<0x55>	0
<0x56>	0
<0x57>	0
<0x58>	0
<0x59>	0
<0x5A>	0
<0x5B>	0
<0x5C>	0
<0x5D>	0
<0x5E>	0
<0x5F>	0
<0x60>	0
<0x61>	0
<0x62>	0
<0x63>	0
<0x64>	0
<0x65>	0
<0x66>	0
<0x67>	0
<0x68>	0
<0x69>	0
<0x6A>	0
<0x6B>	0
<0x6C>	0
<0x6D>	0
<0x6E>	0
<0x6F>	0
<0x70>	0
<0x71>	0
<0x72>	0
<0x73>	0
<0x74>	0
<0x75>	0
<0x76>	0
<0x77>	0
<0x78>	0
<0x79>	0
<0x7A>	0
<0x7B>	0
<0x7C>	0
<0x7D>	0
<0x7E>	0
<0x7F>	0
<0x80>	0
<0x81>	0
<0x82>	0
<0x83>	0
<0x84>	0
<0x85>	0
<0x86>	0
<0x87>	0
<0x88>	0
<0x89>	0
<0x8A>	0
<0x8B>	0
<0x8C>	0
<0x8D>	0
<0x8E>	0
<0x8F>	0
<0x90>	0
<0x91>	0
<0x92>	0
<0x93>	0
<0x94>	0
<0x95>	0
<0x96>	0
<0x97>	0
<0x98>	0
<0x99>	0
<0x9A>	0
<0x9B>	0
<0x9C>	0
<0x9D>	0
<0x9E>	0
<0x9F>	0
<0xA0>	0
<0xA1>	0
<0xA2>	0
<0xA3>	0
<0xA4>	0
<0xA5>	0
<0xA6>	0
<0xA7>	0
<0xA8>	0
<0xA9>	0
<0xAA>	0
<0xAB>	0
<0xAC>	0
<0xAD>	0
<0xAE>	0
<0xAF>	0
<0xB0>	0
<0xB1>	0
<0xB2>	0
<0xB3>	0
<0xB4>	0
<0xB5>	0
<0xB6>	0
<0xB7>	0
<0xB8>	0
<0xB9>	0
<0xBA>	0
<0xBB>	0
<0xBC>	0
<0xBD>	0
<0xBE>	0
<0xBF>	0
<0xC0>	0
<0xC1>	0
<0xC2>	0
<0xC3>	0
<0xC4>	0
<0xC5>	0
<0xC6>	0
<0xC7>	0
<0xC8>	0
<0xC9>	0
<0xCA>	0
<0xCB>	0
<0xCC>	0
<0xCD>	0
<0xCE>	0
<0xCF>	0
<0xD0>	0
<0xD1>	0
<0xD2>	0
<0xD3>	0
<0xD4>	0
<0xD5>	0
<0xD6>	0
<0xD7>	0
<0xD8>	0
<0xD9>	0
<0xDA>	0
<0xDB>	0
<0xDC>	0
<0xDD>	0
<0xDE>	0
<0xDF>	0
<0xE0>	0
<0xE1>	0
<0xE2>	0
<0xE3>	0
<0xE4>	0
<0xE5>	0
<0xE6>	0
<0xE7>	0
<0xE8>	0
<0xE9>	0
<0xEA>	0
<0xEB>	0
<0xEC>	0
<0xED>	0
<0xEE>	0
<0xEF>	0
<0xF0>	0
<0xF1>	0
<0xF2>	0
<0xF3>	0
<0xF4>	0
<0xF5>	0
<0xF6>	0
<0xF7>	0
<0xF8>	0
<0xF9>	0
<0xFA>	0
<0xFB>	0
<0xFC>	0
<0xFD>	0
<0xFE>	0
<0xFF>	0
▁▁	-0
th	-1
▁▁▁▁	-2
in	-3
the	-4
▁,	-5
▁.	-6
▁▁▁	-7
re	-8
is	-9
or	-10
er	-11
an	-12
le	-13
▁)	-14
on	-15
ut	-16
▁_	-17
en	-18
at	-19
st	-20
ch	-21
al	-22
▁▁▁▁▁▁▁▁	-23
se	-24
it	-25
to	-26
es	-27
ro	-28
co	-29
▁:	-30
▁'	-31
ing	-32
ed	-33
So	-34
um	-35
and	-36
ar	-37
for	-38
▁(	-39
of	-40
de	-41
▁=	-42
mp	-43
▁]	-44
be	-45
ct	-46
ach	-47
ion	-48
ma	-49
no	-50
if	-51
he	-52
po	-53
ent	-54
▁-	-55
ce	-56
▁[	-57
nt	-58
ble	-59
im	-60
▁▁▁▁▁▁▁	-61
are	-62
pro	-63
ex	-64
ap	-65
as	-66
ir	-67
each	-68
But	-69
that	-70
ve	-71
ul	-72
ig	-73
ter	-74
ur	-75
pos	-76
ow	-77
sum	-78
all	-79
wh	-80
si	-81
ge	-82
mple	-83
con	-84
put	-85
can	-86
ne	-87
▁▁▁▁▁▁▁▁▁▁▁	-88
qu	-89
ample	-90
we	-91
int	-92
ck	-93
ay	-94
ad	-95
this	-96
ment	-97
max	-98
ly	-99
mo	-100
▁).	-101
wo	-102
su	-103
The	-104
per	-105
Th	-106
ca	-107
For	-108
min	-109
wi	-110
ist	-111
num	-112
id	-113
ait	-114
▁+	-115
▁),	-116
cur	-117
uld	-118
me	-119
but	-120
ber	-121
rent	-122
not	-123
ich	-124
number	-125
up	-126
so	-127
sible	-128
pa	-129
ces	-130
val	-131
ate	-132
code	-133
pre	-134
comp	-135
irst	-136
ver	-137
Wait	-138
ep	-139
igh	-140
with	-141
ll	-142
tr	-143
pl	-144
possible	-145
art	-146
unt	-147
current	-148
then	-149
example	-150
str	-151
rom	-152
first	-153
which	-154
from	-155
ions	-156
step	-157
▁▁▁▁▁▁▁▁▁▁▁▁▁▁▁	-158
act	-159
count	-160
us	-161
ther	-162
out	-163
di	-164
ive	-165
il	-166
use	-167
ele	-168
rect	-169
ta	-170
Then	-171
et	-172
ord	-173
element	-174
▁▁▁▁▁▁	-175
un	-176
ute	-177
end	-178
lo	-179
here	-180
input	-181
would	-182
blem	-183
by	-184
ight	-185
problem	-186
ven	-187
ind	-188
case	-189
tim	-190
ke	-191
ran	-192
len	-193
▁*	-194
posit	-195
pr	-196
▁()	-197
imum	-198
aps	-199
fi	-200
ue	-201
ort	-202
ha	-203
ust	-204
one	-205
▁s	-206
sub	-207
lin	-208
where	-209
two	-210
appro	-211
set	-212
compute	-213
ation	-214
▁?	-215
approach	-216
list	-217
how	-218
ince	-219
new	-220
fo	-221
haps	-222
ree	-223
col	-224
▁e	-225
af	-226
any	-227
have	-228
ip	-229
maximum	-230
perhaps	-231
when	-232
tal	-233
need	-234
▁):	-235
che	-236
ame	-237
red	-238
Let	-239
ac	-240
must	-241
output	-242
arr	-243
range	-244
tern	-245
ative	-246
cor	-247
ges	-248
▁a	-249
check	-250
steps	-251
has	-252
te	-253
sample	-254
node	-255
cess	-256
add	-257
cause	-258
elements	-259
its	-260
pair	-261
If	-262
ft	-263
ans	-264
In	-265
>=	-266
fe	-267
start	-268
line	-269
bo	-270
Al	-271
correct	-272
left	-273
after	-274
total	-275
find	-276
op	-277
res	-278
▁n	-279
ext	-280
ers	-281
des	-282
ba	-283
ult	-284
there	-285
<=	-286
right	-287
order	-288
..	-289
iti	-290
time	-291
array	-292
sed	-293
==	-294
path	-295
row	-296
string	-297
▁x	-298
part	-299
▁i	-300
sh	-301
app	-302
gr	-303
cond	-304
sort	-305
ternative	-306
el	-307
gi	-308
mod	-309
imal	-310
even	-311
li	-312
com	-313
▁^	-314
Alternative	-315
inal	-316
dist	-317
point	-318
other	-319
way	-320
edges	-321
Be	-322
next	-323
prev	-324
bet	-325
char	-326
ast	-327
Because	-328
▁/	-329
form	-330
leng	-331
process	-332
main	-333
same	-334
inc	-335
such	-336
▁k	-337
length	-338
minimal	-339
fix	-340
les	-341
plit	-342
▁▁▁▁▁▁▁▁▁▁▁▁▁▁▁▁	-343
dif	-344
▁][	-345
▁].	-346
may	-347
ack	-348
do	-349
ze	-350
print	-351
iginal	-352
urn	-353
requ	-354
Alternatively	-355
cell	-356
ou	-357
▁],	-358
sorted	-359
ink	-360
dig	-361
let	-362
position	-363
mat	-364
▁}	-365
turn	-366
itial	-367
their	-368
state	-369
wer	-370
ween	-371
valid	-372
del	-373
roup	-374
between	-375
charact	-376
original	-377
ves	-378
os	-379
think	-380
else	-381
▁"	-382
ot	-383
group	-384
ren	-385
cy	-386
pe	-387
vis	-388
ations	-389
ose	-390
see	-391
nodes	-392
dp	-393
edge	-394
ity	-395
inter	-396
tree	-397
und	-398
▁>	-399
arge	-400
ain	-401
od	-402
am	-403
ci	-404
ors	-405
than	-406
requi	-407
uct	-408
able	-409
zer	-410
ic	-411
test	-412
lect	-413
ance	-414
ild	-415
Wh	-416
sequ	-417
since	-418
quer	-419
answer	-420
+=	-421
▁))	-422
ates	-423
remain	-424
diffe	-425
equ	-426
ger	-427
return	-428
lu	-429
que	-430
inte	-431
move	-432
ard	-433
inde	-434
ence	-435
low	-436
▁b	-437
read	-438
ins	-439
into	-440
you	-441
second	-442
ab	-443
initial	-444
pres	-445
positions	-446
pairs	-447
ty	-448
wor	-449
sho	-450
mult	-451
given	-452
onent	-453
ri	-454
sol	-455
adj	-456
index	-457
Now	-458
should	-459
cost	-460
allow	-461
value	-462
prefix	-463
direct	-464
ms	-465
▁])	-466
numbers	-467
some	-468
rea	-469
prim	-470
append	-471
points	-472
▁▁▁▁▁▁▁▁▁▁	-473
only	-474
them	-475
This	-476
sk	-477
oper	-478
tri	-479
zero	-480
Co	-481
ary	-482
▁since	-483
▁())	-484
remaining	-485
ag	-486
bin	-487
work	-488
io	-489
sequence	-490
cle	-491
cho	-492
map	-493
over	-494
ener	-495
umn	-496
wait	-497
imp	-498
cand	-499
odd	-500
▁',	-501
column	-502
gment	-503
Input	-504
yth	-505
ori	-506
sm	-507
last	-508
will	-509
query	-510
ython	-511
present	-512
distance	-513
based	-514
interval	-515
stra	-516
ated	-517
Which	-518
ise	-519
candid	-520
comes	-521
day	-522
split	-523
segment	-524
digits	-525
match	-526
▁j	-527
they	-528
maybe	-529
ction	-530
size	-531
inclu	-532
non	-533
equal	-534
Re	-535
ass	-536
root	-537
▁().	-538
vert	-539
conne	-540
hand	-541
Out	-542
Ano	-543
Another	-544
ite	-545
large	-546
Output	-547
connect	-548
``	-549
ition	-550
gener	-551
fici	-552
perm	-553
llow	-554
ffici	-555
child	-556
sing	-557
Che	-558
par	-559
follow	-560
take	-561
Thus	-562
track	-563
fficient	-564
pi	-565
ign	-566
ang	-567
cord	-568
model	-569
fore	-570
aph	-571
ong	-572
character	-573
▁d	-574
graph	-575
multip	-576
Check	-577
different	-578
divis	-579
becomes	-580
get	-581
processing	-582
def	-583
mask	-584
these	-585
pare	-586
key	-587
ious	-588
subset	-589
...	-590
ok	-591
lock	-592
prod	-593
consi	-594
cording	-595
mov	-596
permut	-597
gh	-598
ues	-599
component	-600
▁m	-601
sy	-602
//	-603
bit	-604
say	-605
using	-606
rever	-607
yes	-608
parent	-609
previous	-610
ever	-611
three	-612
ible	-613
could	-614
cells	-615
Python	-616
according	-617
straint	-618
exact	-619
Read	-620
result	-621
cycle	-622
conta	-623
Comp	-624
required	-625
av	-626
high	-627
fact	-628
age	-629
exist	-630
No	-631
▁split	-632
product	-633
counts	-634
▁c	-635
again	-636
color	-637
idx	-638
bu	-639
cases	-640
cre	-641
cut	-642
efficient	-643
play	-644
mm	-645
characters	-646
select	-647
contri	-648
does	-649
rence	-650
ure	-651
least	-652
exactly	-653
ol	-654
handle	-655
choose	-656
straints	-657
Each	-658
sel	-659
connected	-660
ize	-661
ant	-662
both	-663
solut	-664
contribut	-665
reak	-666
Compute	-667
ies	-668
ses	-669
like	-670
ird	-671
Hmm	-672
ally	-673
grid	-674
ail	-675
lines	-676
Tr	-677
▁_{	-678
termin	-679
sw	-680
digit	-681
ear	-682
▁)/	-683
dep	-684
der	-685
less	-686
block	-687
delta	-688
We	-689
integer	-690
values	-691
self	-692
How	-693
indi	-694
ile	-695
once	-696
direction	-697
reach	-698
those	-699
cont	-700
est	-701
constraints	-702
go	-703
allowed	-704
break	-705
quare	-706
ceed	-707
solution	-708
about	-709
adjac	-710
[]	-711
wr	-712
True	-713
prime	-714
emp	-715
mer	-716
Yes	-717
square	-718
trans	-719
struct	-720
vi	-721
!=	-722
substring	-723
operations	-724
candidate	-725
times	-726
gers	-727
oc	-728
ends	-729
fl	-730
wise	-731
mid	-732
gives	-733
determin	-734
ating	-735
▁N	-736
visit	-737
because	-738
matches	-739
proces	-740
uring	-741
imil	-742
imilar	-743
▁p	-744
permutation	-745
optim	-746
integers	-747
sys	-748
▁▁▁▁▁▁▁▁▁▁▁▁▁▁	-749
▁▁▁▁▁▁▁▁▁	-750
gre	-751
multiple	-752
starting	-753
comput	-754
flo	-755
statement	-756
now	-757
says	-758
ting	-759
represent	-760
assign	-761
dy	-762
more	-763
consider	-764
empty	-765
third	-766
own	-767
alle	-768
▁A	-769
gori	-770
man	-771
before	-772
combin	-773
added	-774
best	-775
▁▁▁▁▁	-776
loop	-777
ugh	-778
arget	-779
cep	-780
chan	-781
gorith	-782
processed	-783
algorith	-784
OR	-785
target	-786
while	-787
ace	-788
ied	-789
First	-790
adding	-791
collect	-792
ata	-793
four	-794
generate	-795
algorithm	-796
what	-797
ossible	-798
minimum	-799
used	-800
iter	-801
visited	-802
starts	-803
rows	-804
itions	-805
contin	-806
data	-807
children	-808
exp	-809
dea	-810
▁'.	-811
conse	-812
cutive	-813
lead	-814
ari	-815
tak	-816
OD	-817
▁]:	-818
consecutive	-819
seems	-820
ding	-821
single	-822
ice	-823
during	-824
However	-825
lar	-826
alse	-827
iz	-828
contains	-829
mplement	-830
indices	-831
occur	-832
MOD	-833
import	-834
cal	-835
heap	-836
rough	-837
ither	-838
fun	-839
enti	-840
▁..	-841
(-	-842
moving	-843
primes	-844
found	-845
incre	-846
binary	-847
through	-848
small	-849
lower	-850
asing	-851
angle	-852
etc	-853
'.	-854
moves	-855
ighb	-856
sure	-857
cul	-858
tract	-859
stack	-860
FS	-861
Sample	-862
upd	-863
continue	-864
larger	-865
ev	-866
```	-867
neighb	-868
adjacent	-869
uni	-870
False	-871
allest	-872
neg	-873
▁think	-874
vers	-875
type	-876
▁)]	-877
queue	-878
another	-879
▁//	-880
DP	-881
parts	-882
den	-883
feas	-884
top	-885
Since	-886
ss	-887
▁')	-888
▁y	-889
run	-890
feasible	-891
smallest	-892
lse	-893
efficiently	-894
tion	-895
lic	-896
ged	-897
requires	-898
intervals	-899
also	-900
ending	-901
ho	-902
▁('	-903
ailable	-904
To	-905
player	-906
▁the	-907
entire	-908
overl	-909
wind	-910
ob	-911
rot	-912
impossible	-913
reg	-914
ities	-915
▁r	-916
plan	-917
Pro	-918
either	-919
many	-920
proceed	-921
ters	-922
down	-923
vid	-924
▁*(	-925
function	-926
ptr	-927
manage	-928
Or	-929
formul	-930
condition	-931
flip	-932
was	-933
word	-934
ical	-935
available	-936
unique	-937
br	-938
▁|	-939
ready	-940
back	-941
window	-942
formula	-943
works	-944
exists	-945
groups	-946
imilarly	-947
bits	-948
inf	-949
already	-950
sq	-951
suf	-952
reverse	-953
std	-954
diff	-955
ill	-956
ency	-957
tain	-958
XOR	-959
▁)=	-960
redu	-961
invalid	-962
bil	-963
There	-964
plus	-965
operation	-966
build	-967
Else	-968
▁t	-969
vel	-970
sums	-971
pat	-972
optimal	-973
most	-974
suffix	-975
cent	-976
side	-977
matri	-978
cnt	-979
BFS	-980
▁l	-981
ward	-982
▁from	-983
higher	-984
allows	-985
table	-986
gest	-987
Similarly	-988
dered	-989
depth	-990
stdin	-991
subtract	-992
Other	-993
arch	-994
round	-995
fect	-996
▁if	-997
manageable	-998
bl	-999
candidates	-1000
pattern	-1001
positive	-1002
Initial	-1003
fter	-1004
gram	-1005
cl	-1006
columns	-1007
▁sum	-1008
After	-1009
log	-1010
largest	-1011
negative	-1012
inv	-1013
card	-1014
doesn	-1015
cd	-1016
weight	-1017
matrix	-1018
__	-1019
might	-1020
▁("	-1021
rt	-1022
place	-1023
ways	-1024
',	-1025
structure	-1026
difference	-1027
plac	-1028
An	-1029
▁)*	-1030
▁which	-1031
dec	-1032
ator	-1033
segments	-1034
ater	-1035
deg	-1036
queries	-1037
dx	-1038
exponent	-1039
arrange	-1040
subtree	-1041
bot	-1042
look	-1043
pose	-1044
states	-1045
paths	-1046
Process	-1047
idea	-1048
▁→	-1049
isect	-1050
cer	-1051
implement	-1052
Ex	-1053
spa	-1054
dis	-1055
level	-1056
bal	-1057
ens	-1058
Otherwise	-1059
follows	-1060
thing	-1061
mon	-1062
▁<	-1063
days	-1064
bisect	-1065
search	-1066
lea	-1067
On	-1068
calcul	-1069
▁")	-1070
ices	-1071
ones	-1072
inct	-1073
desc	-1074
parity	-1075
poly	-1076
strip	-1077
degree	-1078
ES	-1079
needed	-1080
St	-1081
cir	-1082
better	-1083
distinct	-1084
...,	-1085
cles	-1086
sto	-1087
term	-1088
stand	-1089
certain	-1090
make	-1091
spe	-1092
cept	-1093
stu	-1094
terms	-1095
▁.,	-1096
earli	-1097
▁!	-1098
ual	-1099
increa	-1100
ents	-1101
leading	-1102
ake	-1103
clo	-1104
program	-1105
YES	-1106
ross	-1107
correctly	-1108
sive	-1109
▁v	-1110
That	-1111
▁u	-1112
inser	-1113
gcd	-1114
reversed	-1115
precompute	-1116
Sum	-1117
upper	-1118
include	-1119
ful	-1120
Initialize	-1121
area	-1122
floor	-1123
▁':	-1124
divisors	-1125
fr	-1126
considering	-1127
iv	-1128
pop	-1129
road	-1130
vari	-1131
multi	-1132
change	-1133
cover	-1134
▁²	-1135
components	-1136
itt	-1137
sqrt	-1138
moved	-1139
▁__	-1140
ti	-1141
chain	-1142
update	-1143
apping	-1144
whe	-1145
sp	-1146
colors	-1147
computed	-1148
Ad	-1149
uses	-1150
trip	-1151
ai	-1152
whether	-1153
▁".	-1154
None	-1155
plied	-1156
possi	-1157
interse	-1158
sat	-1159
pect	-1160
mis	-1161
),	-1162
swap	-1163
zeros	-1164
pon	-1165
old	-1166
om	-1167
oriz	-1168
within	-1169
vertical	-1170
Therefore	-1171
except	-1172
checking	-1173
ming	-1174
satis	-1175
base	-1176
ush	-1177
why	-1178
variable	-1179
Once	-1180
cap	-1181
divid	-1182
determined	-1183
our	-1184
know	-1185
selected	-1186
create	-1187
team	-1188
pal	-1189
Find	-1190
increasing	-1191
following	-1192
occurrence	-1193
needs	-1194
letters	-1195
led	-1196
vered	-1197
covered	-1198
▁)^	-1199
coord	-1200
respon	-1201
until	-1202
▁▁▁▁▁▁▁▁▁▁▁▁▁	-1203
fri	-1204
dict	-1205
remove	-1206
contain	-1207
ks	-1208
win	-1209
itten	-1210
Se	-1211
written	-1212
▁()))	-1213
gon	-1214
▁L	-1215
CD	-1216
strings	-1217
▁B	-1218
ift	-1219
ry	-1220
lon	-1221
final	-1222
palind	-1223
separ	-1224
rest	-1225
divisible	-1226
placed	-1227
▁S	-1228
sug	-1229
▁",	-1230
neighbor	-1231
incorrect	-1232
subarray	-1233
try	-1234
hel	-1235
pass	-1236
rences	-1237
merged	-1238
req	-1239
suggest	-1240
rem	-1241
too	-1242
polygon	-1243
Cor	-1244
When	-1245
readline	-1246
tra	-1247
existing	-1248
factors	-1249
▁]=	-1250
perform	-1251
edi	-1252
cycles	-1253
without	-1254
Example	-1255
cons	-1256
Add	-1257
leaves	-1258
orizon	-1259
considered	-1260
exit	-1261
conf	-1262
includes	-1263
coordin	-1264
subsets	-1265
Correct	-1266
▁D	-1267
lex	-1268
contribution	-1269
suggests	-1270
horizon	-1271
ser	-1272
**	-1273
ough	-1274
determine	-1275
decre	-1276
reduces	-1277
nam	-1278
mar	-1279
LC	-1280
</	-1281
Sort	-1282
ceil	-1283
space	-1284
returns	-1285
frequ	-1286
kay	-1287
ized	-1288
▁((	-1289
affect	-1290
▁python	-1291
▁ab	-1292
comple	-1293
bos	-1294
tre	-1295
diction	-1296
clu	-1297
Okay	-1298
ced	-1299
GCD	-1300
▁current	-1301
deque	-1302
▁eos	-1303
recur	-1304
NO	-1305
smaller	-1306
fixed	-1307
removed	-1308
game	-1309
ping	-1310
formed	-1311
require	-1312
adi	-1313
via	-1314
vect	-1315
horizontal	-1316
imize	-1317
▁^{	-1318
##	-1319
▁']	-1320
ences	-1321
▁like	-1322
▁inf	-1323
long	-1324
ants	-1325
math	-1326
finding	-1327
assum	-1328
changes	-1329
elif	-1330
followed	-1331
▁max	-1332
others	-1333
temp	-1334
pow	-1335
▁**	-1336
including	-1337
ru	-1338
programming	-1339
vertices	-1340
done	-1341
movement	-1342
rectangle	-1343
modul	-1344
solve	-1345
being	-1346
Sup	-1347
transitions	-1348
Suppose	-1349
overlapping	-1350
increment	-1351
conditions	-1352
stud	-1353
Second	-1354
Con	-1355
cross	-1356
hash	-1357
conv	-1358
modif	-1359
shift	-1360
accep	-1361
eve	-1362
greater	-1363
▁;	-1364
▁but	-1365
contributes	-1366
permutations	-1367
sequences	-1368
correspon	-1369
neighbors	-1370
sets	-1371
acceptable	-1372
It	-1373
exceed	-1374
bility	-1375
▁strip	-1376
All	-1377
freq	-1378
skip	-1379
black	-1380
far	-1381
proba	-1382
just	-1383
directions	-1384
box	-1385
sco	-1386
triplet	-1387
consist	-1388
mak	-1389
every	-1390
-=	-1391
▁C	-1392
medi	-1393
option	-1394
come	-1395
his	-1396
bound	-1397
under	-1398
dle	-1399
ped	-1400
Processing	-1401
dictionary	-1402
decreasing	-1403
oin	-1404
white	-1405
tas	-1406
remains	-1407
been	-1408
actual	-1409
▁():	-1410
Pre	-1411
ner	-1412
Ah	-1413
takes	-1414
minus	-1415
multiplied	-1416
expect	-1417
He	-1418
hal	-1419
increases	-1420
tom	-1421
▁}.	-1422
building	-1423
cards	-1424
rome	-1425
maind	-1426
substrings	-1427
la	-1428
logi	-1429
lay	-1430
wrong	-1431
city	-1432
ess	-1433
▁R	-1434
')	-1435
remaind	-1436
arran	-1437
palindrome	-1438
abo	-1439
ste	-1440
complic	-1441
Test	-1442
sion	-1443
float	-1444
balance	-1445
necess	-1446
middle	-1447
blocks	-1448
At	-1449
forward	-1450
rank	-1451
mist	-1452
deno	-1453
Not	-1454
convex	-1455
ning	-1456
xi	-1457
replace	-1458
ranges	-1459
bottom	-1460
ick	-1461
sc	-1462
iterate	-1463
very	-1464
similar	-1465
bilities	-1466
short	-1467
Also	-1468
standard	-1469
lim	-1470
union	-1471
wins	-1472
flow	-1473
circle	-1474
adjust	-1475
help	-1476
Row	-1477
items	-1478
▁h	-1479
cu	-1480
aa	-1481
depends	-1482
osen	-1483
And	-1484
brid	-1485
▁[-	-1486
above	-1487
power	-1488
intersection	-1489
achi	-1490
chosen	-1491
vertex	-1492
squares	-1493
tup	-1494
grees	-1495
earliest	-1496
je	-1497
ax	-1498
words	-1499
sup	-1500
exclu	-1501
apply	-1502
runs	-1503
degrees	-1504
height	-1505
matching	-1506
frequency	-1507
combinations	-1508
keep	-1509
don	-1510
multiply	-1511
modulo	-1512
swaps	-1513
▁w	-1514
name	-1515
call	-1516
arrangement	-1517
mistake	-1518
son	-1519
remainder	-1520
note	-1521
adjacency	-1522
format	-1523
variables	-1524
uplic	-1525
▁▁▁▁▁▁▁▁▁▁▁▁	-1526
appear	-1527
▁},	-1528
mage	-1529
ded	-1530
center	-1531
▁so	-1532
Total	-1533
along	-1534
she	-1535
delet	-1536
mand	-1537
tions	-1538
agon	-1539
overlap	-1540
combination	-1541
assigned	-1542
still	-1543
ump	-1544
▁join	-1545
cat	-1546
adds	-1547
ets	-1548
ine	-1549
half	-1550
fit	-1551
ak	-1552
her	-1553
fil	-1554
sieve	-1555
convert	-1556
car	-1557
spl	-1558
pick	-1559
arranged	-1560
AB	-1561
arri	-1562
<<	-1563
ilt	-1564
ull	-1565
ances	-1566
sign	-1567
pie	-1568
splits	-1569
▁]*	-1570
ries	-1571
coordinates	-1572
py	-1573
partic	-1574
▁->	-1575
inside	-1576
▁f	-1577
ving	-1578
ase	-1579
ging	-1580
namic	-1581
ij	-1582
uch	-1583
divisor	-1584
da	-1585
cum	-1586
subsequence	-1587
ball	-1588
possibilities	-1589
May	-1590
common	-1591
lists	-1592
among	-1593
slow	-1594
hold	-1595
merge	-1596
duplic	-1597
my	-1598
examples	-1599
abs	-1600
events	-1601
descending	-1602
person	-1603
Step	-1604
bi	-1605
bid	-1606
lengths	-1607
dynamic	-1608
getting	-1609
hest	-1610
ighest	-1611
dataset	-1612
ish	-1613
tack	-1614
Maybe	-1615
ory	-1616
Idea	-1617
You	-1618
Lo	-1619
straight	-1620
taken	-1621
Gi	-1622
ef	-1623
mark	-1624
ault	-1625
).	-1626
nor	-1627
give	-1628
ameter	-1629
around	-1630
curr	-1631
Per	-1632
▁for	-1633
shortest	-1634
▁append	-1635
happ	-1636
compare	-1637
contribute	-1638
pha	-1639
default	-1640
trees	-1641
exponents	-1642
action	-1643
ya	-1644
sufficient	-1645
calculate	-1646
divided	-1647
Given	-1648
angles	-1649
Precompute	-1650
bly	-1651
roads	-1652
▁M	-1653
Pr	-1654
▁count	-1655
equals	-1656
taking	-1657
built	-1658
dr	-1659
ority	-1660
....	-1661
ipart	-1662
highest	-1663
ror	-1664
vide	-1665
bipart	-1666
true	-1667
▁,-	-1668
verse	-1669
represented	-1670
▁each	-1671
score	-1672
Li	-1673
players	-1674
event	-1675
aut	-1676
earlier	-1677
▁number	-1678
limit	-1679
ired	-1680
jump	-1681
entries	-1682
off	-1683
always	-1684
oid	-1685
satisfi	-1686
Next	-1687
equation	-1688
chal	-1689
coins	-1690
▁name	-1691
▁%	-1692
ph	-1693
invol	-1694
cities	-1695
ls	-1696
als	-1697
land	-1698
▁new	-1699
cky	-1700
Note	-1701
domin	-1702
▁]]	-1703
gu	-1704
good	-1705
expected	-1706
construct	-1707
leaf	-1708
hull	-1709
ject	-1710
ous	-1711
rotation	-1712
pri	-1713
complicated	-1714
▁X	-1715
iva	-1716
denomin	-1717
friends	-1718
distances	-1719
board	-1720
show	-1721
achiev	-1722
Alice	-1723
something	-1724
close	-1725
Original	-1726
checks	-1727
infin	-1728
equiva	-1729
generating	-1730
real	-1731
IN	-1732
tok	-1733
wick	-1734
expres	-1735
enwick	-1736
['	-1737
ments	-1738
fy	-1739
Examples	-1740
▁in	-1741
region	-1742
probability	-1743
active	-1744
radi	-1745
diagon	-1746
made	-1747
▁[:	-1748
complex	-1749
directed	-1750
known	-1751
▁main	-1752
▁?),	-1753
logic	-1754
task	-1755
options	-1756
scen	-1757
represents	-1758
->	-1759
store	-1760
bidden	-1761
ordered	-1762
command	-1763
missing	-1764
insert	-1765
defaultdict	-1766
Third	-1767
satisfy	-1768
Col	-1769
ved	-1770
isn	-1771
diameter	-1772
blocked	-1773
ling	-1774
full	-1775
differences	-1776
▁:]	-1777
leq	-1778
▁...	-1779
Print	-1780
mem	-1781
room	-1782
friend	-1783
solute	-1784
gap	-1785
▁','	-1786
air	-1787
'(	-1788
quest	-1789
rat	-1790
decimal	-1791
cumul	-1792
removing	-1793
capac	-1794
▁left	-1795
much	-1796
buy	-1797
enough	-1798
Oh	-1799
rel	-1800
port	-1801
▁even	-1802
':	-1803
generated	-1804
separated	-1805
lent	-1806
ds	-1807
free	-1808
forbidden	-1809
absolute	-1810
reachable	-1811
Tree	-1812
maximize	-1813
modified	-1814
avoid	-1815
gain	-1816
ime	-1817
inputs	-1818
Fenwick	-1819
dest	-1820
ople	-1821
ular	-1822
chang	-1823
▁(-	-1824
ctions	-1825
▁th	-1826
fourth	-1827
▁NO	-1828
filled	-1829
Bob	-1830
entry	-1831
▁)-	-1832
stored	-1833
ont	-1834
vector	-1835
stop	-1836
ier	-1837
people	-1838
ensure	-1839
merging	-1840
xor	-1841
factor	-1842
▁/(	-1843
push	-1844
att	-1845
cannot	-1846
asc	-1847
▁T	-1848
directly	-1849
transition	-1850
Case	-1851
assuming	-1852
osing	-1853
planation	-1854
equivalent	-1855
itially	-1856
▁)//	-1857
achieved	-1858
Gener	-1859
LCM	-1860
linear	-1861
▁)).	-1862
ario	-1863
year	-1864
were	-1865
triangle	-1866
▁=-	-1867
altern	-1868
Testing	-1869
duplicates	-1870
":	-1871
regard	-1872
Perhaps	-1873
front	-1874
▁K	-1875
ascending	-1876
longer	-1877
fail	-1878
undy	-1879
recursive	-1880
ts	-1881
copy	-1882
none	-1883
Count	-1884
longest	-1885
understand	-1886
aw	-1887
yi	-1888
"__	-1889
mi	-1890
separate	-1891
choice	-1892
median	-1893
arrays	-1894
((	-1895
robot	-1896
regardless	-1897
Generate	-1898
gy	-1899
▁__":	-1900
▁)),	-1901
pes	-1902
DS	-1903
open	-1904
stri	-1905
students	-1906
goal	-1907
ings	-1908
ys	-1909
priority	-1910
counted	-1911
bas	-1912
▁original	-1913
write	-1914
wards	-1915
carr	-1916
▁g	-1917
ub	-1918
bridge	-1919
necessary	-1920
memo	-1921
ision	-1922
decrea	-1923
ization	-1924
particip	-1925
divide	-1926
scenario	-1927
ST	-1928
aran	-1929
vs	-1930
repe	-1931
date	-1932
choosing	-1933
division	-1934
wall	-1935
▁index	-1936
usion	-1937
Ed	-1938
corresponding	-1939
occurrences	-1940
arante	-1941
ats	-1942
guarante	-1943
▁no	-1944
dir	-1945
suppose	-1946
ars	-1947
▁z	-1948
want	-1949
numer	-1950
makes	-1951
tuple	-1952
cr	-1953
version	-1954
attack	-1955
paint	-1956
sid	-1957
sorting	-1958
covers	-1959
))	-1960
capacity	-1961
collections	-1962
sour	-1963
computation	-1964
big	-1965
coefficient	-1966
layer	-1967
mount	-1968
denominator	-1969
letter	-1970
cube	-1971
siz	-1972
regions	-1973
aces	-1974
▁]*(	-1975
station	-1976
iteration	-1977
defin	-1978
heapq	-1979
multiples	-1980
masks	-1981
tracking	-1982
▁leq	-1983
stor	-1984
resid	-1985
bipartite	-1986
keys	-1987
cies	-1988
wice	-1989
▁)):	-1990
imized	-1991
edy	-1992
computing	-1993
compos	-1994
'?	-1995
trail	-1996
alternative	-1997
though	-1998
vectors	-1999
kn	-2000
wn	-2001
uous	-2002
placing	-2003
UT	-2004
hit	-2005
outputs	-2006
versal	-2007
ically	-2008
domino	-2009
train	-2010
lict	-2011
imul	-2012
item	-2013
theta	-2014
mex	-2015
twice	-2016
Mo	-2017
selecting	-2018
itself	-2019
met	-2020
minimize	-2021
▁}^	-2022
cial	-2023
differ	-2024
student	-2025
carry	-2026
▁up	-2027
across	-2028
asses	-2029
multipl	-2030
▁after	-2031
intain	-2032
▁including	-2033
Like	-2034
ures	-2035
conflict	-2036
applied	-2037
who	-2038
pile	-2039
sizes	-2040
DSU	-2041
greedy	-2042
possibly	-2043
ond	-2044
guaranteed	-2045
wid	-2046
lete	-2047
Implement	-2048
arrival	-2049
traversal	-2050
inclusive	-2051
worst	-2052
[(	-2053
rib	-2054
comb	-2055
question	-2056
happen	-2057
ages	-2058
weights	-2059
flips	-2060
▁YES	-2061
going	-2062
utes	-2063
aver	-2064
What	-2065
types	-2066
▁as	-2067
lies	-2068
▁or	-2069
diagonal	-2070
factori	-2071
pend	-2072
okay	-2073
[-	-2074
means	-2075
rotated	-2076
king	-2077
included	-2078
gether	-2079
addition	-2080
delete	-2081
together	-2082
share	-2083
▁$	-2084
ima	-2085
class	-2086
handling	-2087
▁distance	-2088
straightforward	-2089
face	-2090
ify	-2091
Collect	-2092
strict	-2093
fic	-2094
gg	-2095
reate	-2096
lucky	-2097
sl	-2098
coll	-2099
gaps	-2100
stones	-2101
As	-2102
clock	-2103
▁P	-2104
▁)))	-2105
blue	-2106
maintain	-2107
syste	-2108
▁odd	-2109
spaces	-2110
▁cost	-2111
▁]).	-2112
brack	-2113
arily	-2114
excluding	-2115
fer	-2116
▁W	-2117
counter	-2118
parse	-2119
inserting	-2120
general	-2121
".	-2122
combined	-2123
handled	-2124
arter	-2125
fill	-2126
appears	-2127
amount	-2128
ately	-2129
Create	-2130
stuck	-2131
consists	-2132
simul	-2133
LCA	-2134
trailing	-2135
seconds	-2136
Take	-2137
width	-2138
ption	-2139
Fi	-2140
Bu	-2141
▁."	-2142
increase	-2143
indic	-2144
respect	-2145
Start	-2146
radius	-2147
smarter	-2148
assignment	-2149
price	-2150
wants	-2151
ny	-2152
▁No	-2153
desired	-2154
▁assuming	-2155
{}	-2156
'.'	-2157
cli	-2158
basis	-2159
divides	-2160
▁min	-2161
lowercase	-2162
▁o	-2163
fs	-2164
splitting	-2165
sequent	-2166
partition	-2167
▁H	-2168
Po	-2169
▁]))	-2170
flipping	-2171
head	-2172
proper	-2173
ended	-2174
LE	-2175
sym	-2176
error	-2177
ank	-2178
adjusted	-2179
▁start	-2180
meth	-2181
intersect	-2182
otherwise	-2183
pointer	-2184
describ	-2185
overall	-2186
mir	-2187
occurs	-2188
outside	-2189
eas	-2190
method	-2191
Look	-2192
▁^(	-2193
span	-2194
shows	-2195
subsequent	-2196
grundy	-2197
cro	-2198
sa	-2199
containing	-2200
perime	-2201
▁length	-2202
formation	-2203
user	-2204
applying	-2205
challen	-2206
otes	-2207
explanation	-2208
cks	-2209
spec	-2210
strictly	-2211
clockwise	-2212
▁dx	-2213
quick	-2214
system	-2215
updated	-2216
post	-2217
caten	-2218
itch	-2219
pract	-2220
opposit	-2221
labe	-2222
ni	-2223
boxes	-2224
--	-2225
making	-2226
DFS	-2227
ye	-2228
imin	-2229
average	-2230
compar	-2231
lobal	-2232
'#	-2233
uth	-2234
MP	-2235
clear	-2236
book	-2237
peri	-2238
Build	-2239
against	-2240
[[	-2241
piece	-2242
affects	-2243
perimeter	-2244
forms	-2245
ensive	-2246
circles	-2247
roots	-2248
ked	-2249
coordinate	-2250
respective	-2251
▁right	-2252
opposite	-2253
Vas	-2254
strate	-2255
challenge	-2256
ND	-2257
necessarily	-2258
outline	-2259
numerator	-2260
distri	-2261
choices	-2262
units	-2263
concaten	-2264
him	-2265
source	-2266
infinity	-2267
▁all	-2268
Up	-2269
MST	-2270
cup	-2271
phase	-2272
bey	-2273
ratio	-2274
stit	-2275
encies	-2276
global	-2277
Fib	-2278
beyond	-2279
appl	-2280
norm	-2281
▁['	-2282
SA	-2283
implementing	-2284
simp	-2285
ons	-2286
resulting	-2287
minutes	-2288
Looking	-2289
teams	-2290
fur	-2291
illion	-2292
pieces	-2293
costs	-2294
practice	-2295
De	-2296
speed	-2297
implies	-2298
saf	-2299
sur	-2300
satisfied	-2301
tokens	-2302
dim	-2303
quickly	-2304
individ	-2305
capt	-2306
ident	-2307
pot	-2308
specif	-2309
'-	-2310
become	-2311
contr	-2312
triplets	-2313
▁q	-2314
stead	-2315
image	-2316
contig	-2317
town	-2318
Split	-2319
rotations	-2320
insertion	-2321
contiguous	-2322
below	-2323
fin	-2324
strategy	-2325
inverse	-2326
Possible	-2327
member	-2328
tuples	-2329
ights	-2330
rectangles	-2331
auto	-2332
ered	-2333
Edge	-2334
swapping	-2335
care	-2336
Sub	-2337
▁row	-2338
unless	-2339
exceeds	-2340
squared	-2341
contradi	-2342
▁len	-2343
'+	-2344
stac	-2345
▁not	-2346
closest	-2347
popleft	-2348
fue	-2349
Constraints	-2350
meet	-2351
names	-2352
pen	-2353
▁E	-2354
mess	-2355
suming	-2356
ense	-2357
▁)+	-2358
leftmost	-2359
depend	-2360
switch	-2361
fully	-2362
AG	-2363
layers	-2364
obstac	-2365
Use	-2366
amb	-2367
tail	-2368
yet	-2369
described	-2370
independ	-2371
[[]	-2372
atch	-2373
problems	-2374
independent	-2375
automat	-2376
dimens	-2377
bad	-2378
east	-2379
vary	-2380
million	-2381
reduce	-2382
ambda	-2383
vol	-2384
leads	-2385
bridges	-2386
substit	-2387
▁<=	-2388
pack	-2389
cumulative	-2390
cm	-2391
rules	-2392
AA	-2393
period	-2394
Here	-2395
Bo	-2396
nothing	-2397
ted	-2398
lambda	-2399
coverage	-2400
star	-2401
transformed	-2402
gir	-2403
whose	-2404
Vasya	-2405
odds	-2406
ijk	-2407
wers	-2408
palindrom	-2409
passes	-2410
igno	-2411
hero	-2412
fraction	-2413
subarrays	-2414
▁})	-2415
checked	-2416
net	-2417
hy	-2418
INF	-2419
bus	-2420
complete	-2421
matter	-2422
zy	-2423
alpha	-2424
satisfies	-2425
lls	-2426
ifth	-2427
eat	-2428
corresponds	-2429
leave	-2430
flipped	-2431
mean	-2432
amp	-2433
individual	-2434
profit	-2435
safe	-2436
maximal	-2437
imiz	-2438
effect	-2439
fuel	-2440
balls	-2441
▁([	-2442
ew	-2443
ship	-2444
house	-2445
Max	-2446
ured	-2447
loye	-2448
equations	-2449
calculation	-2450
▁with	-2451
vation	-2452
loops	-2453
inary	-2454
Le	-2455
▁Yes	-2456
special	-2457
ually	-2458
bered	-2459
bs	-2460
ensu	-2461
reduced	-2462
Loop	-2463
▁abc	-2464
Ro	-2465
late	-2466
spf	-2467
turns	-2468
gets	-2469
jo	-2470
Man	-2471
beaut	-2472
umer	-2473
▁total	-2474
pay	-2475
understanding	-2476
distribut	-2477
Update	-2478
mode	-2479
▁positions	-2480
▁excluding	-2481
cular	-2482
holds	-2483
results	-2484
changing	-2485
simple	-2486
Iter	-2487
▁aba	-2488
gin	-2489
ki	-2490
multiplic	-2491
▁)/(	-2492
destin	-2493
aries	-2494
apped	-2495
elimin	-2496
obser	-2497
aving	-2498
spanning	-2499
togg	-2500
later	-2501
replaced	-2502
hour	-2503
numbered	-2504
unit	-2505
ssign	-2506
orig	-2507
chars	-2508
seen	-2509
axis	-2510
cuts	-2511
expl	-2512
Assign	-2513
tiles	-2514
bitmask	-2515
▁)(	-2516
▁False	-2517
solutions	-2518
IT	-2519
north	-2520
AND	-2521
computationally	-2522
fig	-2523
quad	-2524
further	-2525
looking	-2526
sides	-2527
sense	-2528
▁G	-2529
coefficients	-2530
west	-2531
endpoints	-2532
wal	-2533
constraint	-2534
phi	-2535
ops	-2536
CC	-2537
pan	-2538
hatt	-2539
hattan	-2540
PUT	-2541
rev	-2542
minimized	-2543
coprime	-2544
cros	-2545
▁pos	-2546
▁sort	-2547
shifted	-2548
monst	-2549
Node	-2550
actions	-2551
prob	-2552
lif	-2553
collected	-2554
substitut	-2555
updates	-2556
Un	-2557
▁node	-2558
enumer	-2559
gs	-2560
oms	-2561
challeng	-2562
selection	-2563
rece	-2564
winner	-2565
els	-2566
▁[(	-2567
ensures	-2568
stone	-2569
ites	-2570
Di	-2571
closed	-2572
prec	-2573
=-	-2574
contest	-2575
amin	-2576
ref	-2577
rip	-2578
Iterate	-2579
logical	-2580
alcul	-2581
employe	-2582
token	-2583
activ	-2584
▁`	-2585
Ch	-2586
your	-2587
▁**:	-2588
stick	-2589
Ap	-2590
These	-2591
ld	-2592
lot	-2593
song	-2594
hi	-2595
thus	-2596
")	-2597
text	-2598
compres	-2599
well	-2600
tile	-2601
normal	-2602
infinite	-2603
won	-2604
cos	-2605
▁position	-2606
config	-2607
Calcul	-2608
ators	-2609
insight	-2610
shap	-2611
▁step	-2612
ranch	-2613
▁)*(	-2614
bc	-2615
ensuring	-2616
dish	-2617
stations	-2618
pired	-2619
levels	-2620
month	-2621
ners	-2622
Manhattan	-2623
marked	-2624
products	-2625
ames	-2626
descrip	-2627
pur	-2628
bitr	-2629
initially	-2630
tight	-2631
changed	-2632
uration	-2633
ijkstra	-2634
arbitr	-2635
gues	-2636
trie	-2637
counting	-2638
Hence	-2639
rooms	-2640
inversion	-2641
solved	-2642
▁F	-2643
processes	-2644
complement	-2645
challenging	-2646
▁aa	-2647
multis	-2648
One	-2649
rook	-2650
complexity	-2651
accumul	-2652
recursively	-2653
clusion	-2654
branch	-2655
rightmost	-2656
consisting	-2657
Dijkstra	-2658
instead	-2659
observation	-2660
cust	-2661
towards	-2662
six	-2663
recursion	-2664
patterns	-2665
expression	-2666
alled	-2667
operator	-2668
helpful	-2669
damage	-2670
draw	-2671
versions	-2672
decreases	-2673
ial	-2674
putting	-2675
▁sorted	-2676
ols	-2677
ule	-2678
few	-2679
tric	-2680
iding	-2681
likely	-2682
assume	-2683
backward	-2684
thest	-2685
connects	-2686
produ	-2687
defined	-2688
contributions	-2689
combining	-2690
Initially	-2691
colo	-2692
ash	-2693
issu	-2694
begin	-2695
obtain	-2696
▁to	-2697
subtracting	-2698
▁]),	-2699
DAG	-2700
MPLE	-2701
inspired	-2702
▁)].	-2703
memoization	-2704
",	-2705
anced	-2706
▁next	-2707
mapping	-2708
gru	-2709
valu	-2710
functions	-2711
eld	-2712
fifth	-2713
kes	-2714
congru	-2715
pies	-2716
vided	-2717
stay	-2718
nx	-2719
topo	-2720
inner	-2721
expensive	-2722
suc	-2723
due	-2724
samples	-2725
SAMPLE	-2726
orient	-2727
swapped	-2728
centers	-2729
ra	-2730
aper	-2731
decid	-2732
memory	-2733
called	-2734
coin	-2735
ponent	-2736
{'	-2737
undirected	-2738
ept	-2739
roid	-2740
].	-2741
goes	-2742
mirror	-2743
participants	-2744
appush	-2745
heappush	-2746
sin	-2747
increments	-2748
piles	-2749
qrt	-2750
destination	-2751
Ar	-2752
▁').	-2753
record	-2754
immedi	-2755
▁I	-2756
recurrence	-2757
flag	-2758
gth	-2759
inally	-2760
express	-2761
oney	-2762
kept	-2763
colored	-2764
ancestor	-2765
carefully	-2766
dou	-2767
butt	-2768
stops	-2769
fut	-2770
had	-2771
clic	-2772
depart	-2773
south	-2774
igned	-2775
easier	-2776
multiset	-2777
description	-2778
outcome	-2779
xy	-2780
gl	-2781
datasets	-2782
'(',	-2783
replacing	-2784
message	-2785
vice	-2786
places	-2787
respectively	-2788
Mult	-2789
answers	-2790
paired	-2791
var	-2792
reading	-2793
specific	-2794
bul	-2795
▁else	-2796
###	-2797
ameters	-2798
na	-2799
modify	-2800
▁self	-2801
tools	-2802
▁prefix	-2803
Move	-2804
ternal	-2805
inst	-2806
cub	-2807
enumerate	-2808
▁'),	-2809
Group	-2810
composite	-2811
parents	-2812
Qu	-2813
backtracking	-2814
frequencies	-2815
metric	-2816
ives	-2817
reas	-2818
bracket	-2819
calculated	-2820
reality	-2821
▁#	-2822
topological	-2823
imizes	-2824
iterating	-2825
remo	-2826
Multip	-2827
ark	-2828
Implementing	-2829
sn	-2830
Val	-2831
cket	-2832
Gr	-2833
Counter	-2834
▁without	-2835
participant	-2836
money	-2837
Calculate	-2838
vow	-2839
figure	-2840
bro	-2841
ived	-2842
representation	-2843
▁|.	-2844
orders	-2845
ps	-2846
winning	-2847
perfect	-2848
▁.)	-2849
involves	-2850
enter	-2851
sliding	-2852
calculating	-2853
fast	-2854
ken	-2855
handles	-2856
centroid	-2857
themat	-2858
opponent	-2859
closing	-2860
collision	-2861
ficult	-2862
ness	-2863
things	-2864
difficult	-2865
Well	-2866
decrease	-2867
'*	-2868
trying	-2869
commands	-2870
future	-2871
eff	-2872
arbitrary	-2873
precomputed	-2874
optimized	-2875
jumps	-2876
Option	-2877
matched	-2878
magi	-2879
removal	-2880
cially	-2881
inity	-2882
alternate	-2883
copies	-2884
Remove	-2885
zz	-2886
deleted	-2887
They	-2888
mathemat	-2889
AC	-2890
balanced	-2891
expand	-2892
five	-2893
▁ba	-2894
ched	-2895
minute	-2896
Multiply	-2897
lazy	-2898
additional	-2899
▁non	-2900
nomi	-2901
tails	-2902
itive	-2903
cour	-2904
iterations	-2905
chooses	-2906
Both	-2907
reaches	-2908
fib	-2909
painted	-2910
polynomi	-2911
stat	-2912
losing	-2913
information	-2914
▁]-	-2915
examin	-2916
important	-2917
stair	-2918
subtrees	-2919
Chef	-2920
denote	-2921
aj	-2922
En	-2923
assignments	-2924
anything	-2925
chains	-2926
force	-2927
reason	-2928
rule	-2929
▁size	-2930
modeled	-2931
asha	-2932
involve	-2933
orter	-2934
ID	-2935
▁=(	-2936
espe	-2937
occup	-2938
indicates	-2939
outgoing	-2940
deck	-2941
provided	-2942
guess	-2943
reflect	-2944
maj	-2945
▁same	-2946
ene	-2947
water	-2948
incl	-2949
Four	-2950
especially	-2951
▁O	-2952
pairwise	-2953
island	-2954
floating	-2955
tricky	-2956
loc	-2957
Quer	-2958
▁prev	-2959
inclusion	-2960
walls	-2961
oting	-2962
solving	-2963
deletions	-2964
arc	-2965
>>	-2966
AT	-2967
▁:.	-2968
arith	-2969
')',	-2970
▁starting	-2971
consuming	-2972
roy	-2973
accordingly	-2974
shot	-2975
▁ii	-2976
Ci	-2977
EF	-2978
soldi	-2979
etya	-2980
subsequences	-2981
sink	-2982
▁Y	-2983
rotate	-2984
capture	-2985
send	-2986
centr	-2987
bar	-2988
ane	-2989
plane	-2990
light	-2991
die	-2992
▁)}	-2993
optimize	-2994
BB	-2995
lang	-2996
joint	-2997
intended	-2998
success	-2999
anal	-3000
carp	-3001
Rep	-3002
hard	-3003
▁mask	-3004
men	-3005
iterative	-3006
▁	-3007
precision	-3008
()	-3009
Subtract	-3010
initialized	-3011
Convert	-3012
door	-3013
decided	-3014
away	-3015
ature	-3016
rooted	-3017
whenever	-3018
transform	-3019
dot	-3020
immediately	-3021
home	-3022
Ai	-3023
shorter	-3024
'?'	-3025
From	-3026
working	-3027
▁indices	-3028
examine	-3029
particular	-3030
abc	-3031
replacement	-3032
regular	-3033
evalu	-3034
shop	-3035
having	-3036
ties	-3037
subgraph	-3038
omer	-3039
probably	-3040
knight	-3041
indexes	-3042
▁\	-3043
converting	-3044
jects	-3045
covering	-3046
roll	-3047
disc	-3048
dete	-3049
leaving	-3050
hole	-3051
farthest	-3052
▁except	-3053
cide	-3054
girl	-3055
sched	-3056
coming	-3057
internal	-3058
▁low	-3059
faces	-3060
cts	-3061
batch	-3062
breaks	-3063
ctor	-3064
Right	-3065
uppercase	-3066
++	-3067
link	-3068
bipartition	-3069
Sorted	-3070
dominoes	-3071
bles	-3072
seats	-3073
decide	-3074
response	-3075
account	-3076
latest	-3077
'('	-3078
creating	-3079
rounds	-3080
conflicting	-3081
differently	-3082
core	-3083
era	-3084
shifts	-3085
slo	-3086
sever	-3087
Your	-3088
Poly	-3089
elev	-3090
▁infinity	-3091
appli	-3092
parameters	-3093
brackets	-3094
▁mod	-3095
Pos	-3096
scores	-3097
windows	-3098
comparing	-3099
candies	-3100
Set	-3101
corner	-3102
▁image	-3103
encount	-3104
residue	-3105
beginning	-3106
exponenti	-3107
exam	-3108
lace	-3109
ud	-3110
placement	-3111
partitions	-3112
▁}^{	-3113
excess	-3114
inserted	-3115
flush	-3116
▁<<	-3117
itertools	-3118
ff	-3119
sell	-3120
setting	-3121
factorial	-3122
maximized	-3123
Petya	-3124
cubes	-3125
bb	-3126
several	-3127
Day	-3128
Ac	-3129
FF	-3130
ico	-3131
destroy	-3132
RR	-3133
ray	-3134
repeated	-3135
▁'].	-3136
obtained	-3137
▁format	-3138
cru	-3139
inversions	-3140
representing	-3141
'.',	-3142
volum	-3143
mathematical	-3144
Compare	-3145
tracks	-3146
palindromes	-3147
factoriz	-3148
bases	-3149
rounded	-3150
Finally	-3151
paralle	-3152
cc	-3153
exclusion	-3154
*=	-3155
overlaps	-3156
itical	-3157
connecting	-3158
reached	-3159
Pair	-3160
▁float	-3161
('	-3162
velo	-3163
dividing	-3164
differing	-3165
Line	-3166
▁>=	-3167
residues	-3168
▁aaa	-3169
ie	-3170
bott	-3171
oo	-3172
cols	-3173
▁bit	-3174
Fourth	-3175
printed	-3176
langu	-3177
encountered	-3178
broken	-3179
dfs	-3180
offset	-3181
alloc	-3182
▁delta	-3183
thought	-3184
BIT	-3185
ranks	-3186
circular	-3187
Left	-3188
precomputing	-3189
▁’	-3190
increased	-3191
▁using	-3192
ress	-3193
finds	-3194
possibility	-3195
▁)!	-3196
▁)?	-3197
monster	-3198
abil	-3199
lie	-3200
BC	-3201
simulate	-3202
denoting	-3203
ints	-3204
polynomial	-3205
acci	-3206
vot	-3207
failure	-3208
series	-3209
▁pi	-3210
onacci	-3211
false	-3212
job	-3213
▁]+	-3214
▁}".	-3215
Their	-3216
composition	-3217
combine	-3218
hasn	-3219
critical	-3220
ian	-3221
cant	-3222
approx	-3223
relative	-3224
complicates	-3225
mut	-3226
did	-3227
targets	-3228
computes	-3229
instruct	-3230
Polycarp	-3231
▁dp	-3232
Sh	-3233
deleting	-3234
defic	-3235
cyclic	-3236
fav	-3237
iful	-3238
keeping	-3239
rand	-3240
removes	-3241
seat	-3242
####	-3243
cach	-3244
ference	-3245
converted	-3246
automaton	-3247
apples	-3248
bom	-3249
treas	-3250
games	-3251
button	-3252
istic	-3253
pointers	-3254
departure	-3255
ysis	-3256
limited	-3257
beautiful	-3258
cla	-3259
gen	-3260
prog	-3261
occupied	-3262
▁nx	-3263
▁yes	-3264
labels	-3265
▁inclusive	-3266
clique	-3267
aba	-3268
customer	-3269
ifi	-3270
Explanation	-3271
hits	-3272
'>	-3273
▁U	-3274
OUT	-3275
bounds	-3276
termine	-3277
sli	-3278
Addition	-3279
:-	-3280
▁V	-3281
shape	-3282
Push	-3283
▁xi	-3284
optimiz	-3285
nest	-3286
ential	-3287
▁add	-3288
rid	-3289
sent	-3290
walk	-3291
depending	-3292
pivot	-3293
analysis	-3294
field	-3295
drink	-3296
obstacles	-3297
finish	-3298
▁init	-3299
compet	-3300
storing	-3301
achieve	-3302
#.	-3303
sticks	-3304
Determine	-3305
Additionally	-3306
seg	-3307
AP	-3308
optimization	-3309
magic	-3310
itu	-3311
never	-3312
prices	-3313
Cho	-3314
implementation	-3315
lcm	-3316
Ne	-3317
cast	-3318
fractional	-3319
dimension	-3320
company	-3321
inequal	-3322
▁|=	-3323
misunderstanding	-3324
picks	-3325
dro	-3326
request	-3327
fro	-3328
structured	-3329
paren	-3330
obstacle	-3331
▁aab	-3332
section	-3333
powers	-3334
▁first	-3335
stre	-3336
configuration	-3337
IS	-3338
prefixes	-3339
contradiction	-3340
loses	-3341
▁last	-3342
cache	-3343
dimensions	-3344
skill	-3345
reasoning	-3346
ide	-3347
detect	-3348
ignore	-3349
random	-3350
confusing	-3351
bon	-3352
pairing	-3353
▁__(	-3354
According	-3355
▁binary	-3356
marks	-3357
blank	-3358
optimizations	-3359
crossing	-3360
rength	-3361
tasks	-3362
flight	-3363
route	-3364
cable	-3365
fall	-3366
ught	-3367
symmetric	-3368
books	-3369
congruent	-3370
boy	-3371
stores	-3372
determines	-3373
▁,...,	-3374
▁say	-3375
early	-3376
strength	-3377
deletion	-3378
reads	-3379
SP	-3380
........	-3381
Adding	-3382
arp	-3383
▁("{	-3384
apart	-3385
While	-3386
ik	-3387
thres	-3388
repeat	-3389
cry	-3390
cx	-3391
optimally	-3392
ceiling	-3393
peak	-3394
disjoint	-3395
ication	-3396
gine	-3397
corners	-3398
central	-3399
hours	-3400
excluded	-3401
backtrack	-3402
Mer	-3403
rors	-3404
▁two	-3405
cate	-3406
decrement	-3407
parallel	-3408
ply	-3409
lose	-3410
interest	-3411
areas	-3412
orth	-3413
Tak	-3414
volume	-3415
Edges	-3416
contributing	-3417
concatenated	-3418
reversing	-3419
Fibonacci	-3420
▁'?	-3421
▁ai	-3422
stars	-3423
'<	-3424
Query	-3425
votes	-3426
symbo	-3427
▁because	-3428
forming	-3429
▁'}	-3430
duplicate	-3431
XX	-3432
coeff	-3433
au	-3434
comparis	-3435
decess	-3436
dice	-3437
preced	-3438
cip	-3439
miss	-3440
pag	-3441
versa	-3442
icograph	-3443
Same	-3444
exclude	-3445
BA	-3446
'#'	-3447
''.	-3448
heights	-3449
Sw	-3450
view	-3451
atives	-3452
vo	-3453
transformation	-3454
green	-3455
predecess	-3456
creates	-3457
deficit	-3458
houses	-3459
cing	-3460
▁end	-3461
reset	-3462
traverse	-3463
Grundy	-3464
correspond	-3465
dsu	-3466
Num	-3467
suit	-3468
mag	-3469
▁where	-3470
rotating	-3471
loss	-3472
maps	-3473
posed	-3474
cow	-3475
fight	-3476
spell	-3477
ague	-3478
▁and	-3479
simulation	-3480
heappop	-3481
▁='	-3482
applicable	-3483
compat	-3484
lexicograph	-3485
undant	-3486
multiplying	-3487
▁"{	-3488
Cur	-3489
simplif	-3490
div	-3491
lit	-3492
traver	-3493
stage	-3494
triangles	-3495
INPUT	-3496
dots	-3497
threshold	-3498
▁≤	-3499
boundary	-3500
orientation	-3501
collection	-3502
ange	-3503
propag	-3504
skipped	-3505
entirely	-3506
diagonals	-3507
Segment	-3508
support	-3509
Ber	-3510
deltas	-3511
redundant	-3512
ability	-3513
dead	-3514
▁(''.	-3515
▁when	-3516
played	-3517
approxim	-3518
realize	-3519
kill	-3520
metic	-3521
▁mid	-3522
allowing	-3523
coding	-3524
bri	-3525
Number	-3526
employee	-3527
▁}")	-3528
chun	-3529
overflow	-3530
ips	-3531
expects	-3532
OUTPUT	-3533
country	-3534
exponentiation	-3535
nested	-3536
years	-3537
double	-3538
opening	-3539
pict	-3540
quotes	-3541
Min	-3542
▁depth	-3543
factorization	-3544
super	-3545
New	-3546
helper	-3547
Current	-3548
decomposition	-3549
came	-3550
vio	-3551
grids	-3552
tele	-3553
extra	-3554
nj	-3555
▁,...	-3556
signifi	-3557
popped	-3558
edily	-3559
ckets	-3560
ution	-3561
arithmetic	-3562
extend	-3563
Ty	-3564
pho	-3565
outer	-3566
Do	-3567
summing	-3568
▁either	-3569
automatically	-3570
structures	-3571
contradicts	-3572
substitution	-3573
thes	-3574
Steps	-3575
ring	-3576
alternates	-3577
penal	-3578
ME	-3579
▁]):	-3580
const	-3581
food	-3582
vowels	-3583
incoming	-3584
passing	-3585
greedily	-3586
Hel	-3587
palindromic	-3588
got	-3589
avy	-3590
matters	-3591
▁only	-3592
NA	-3593
spells	-3594
multiplication	-3595
uest	-3596
▁time	-3597
ath	-3598
employees	-3599
evens	-3600
conson	-3601
origin	-3602
page	-3603
ah	-3604
querying	-3605
grouping	-3606
vir	-3607
sal	-3608
elevator	-3609
extended	-3610
maintaining	-3611
▁=[	-3612
▁'],	-3613
arrives	-3614
compatible	-3615
catch	-3616
presence	-3617
discre	-3618
soldiers	-3619
intersections	-3620
ital	-3621
neither	-3622
save	-3623
mission	-3624
photo	-3625
happens	-3626
****	-3627
unclear	-3628
issues	-3629
worse	-3630
alphabet	-3631
ament	-3632
ibility	-3633
Help	-3634
pip	-3635
▁'):	-3636
compressed	-3637
ABC	-3638
cars	-3639
selves	-3640
▁sqrt	-3641
mach	-3642
colinear	-3643
robots	-3644
ith	-3645
clust	-3646
▁·	-3647
glish	-3648
course	-3649
touch	-3650
Ke	-3651
wee	-3652
ignored	-3653
foot	-3654
apsack	-3655
significant	-3656
Only	-3657
linked	-3658
members	-3659
_#	-3660
knapsack	-3661
join	-3662
Column	-3663
streak	-3664
snake	-3665
boo	-3666
▁steps	-3667
unlikely	-3668
Choose	-3669
implemented	-3670
Type	-3671
negatives	-3672
indeed	-3673
▁?)	-3674
▁input	-3675
effective	-3676
▁type	-3677
uple	-3678
ler	-3679
angular	-3680
exchange	-3681
▁value	-3682
km	-3683
aks	-3684
Mi	-3685
pix	-3686
Inser	-3687
towns	-3688
meets	-3689
visible	-3690
triple	-3691
sources	-3692
produce	-3693
themselves	-3694
doing	-3695
label	-3696
▁[::-	-3697
merges	-3698
bre	-3699
lamp	-3700
proceeds	-3701
girls	-3702
▁second	-3703
ticket	-3704
reverses	-3705
Even	-3706
involved	-3707
alternating	-3708
prun	-3709
verify	-3710
operators	-3711
pages	-3712
paper	-3713
'-',	-3714
Can	-3715
▁|,	-3716
Assuming	-3717
designed	-3718
rol	-3719
belong	-3720
dictionaries	-3721
Jo	-3722
project	-3723
transfer	-3724
leader	-3725
spid	-3726
med	-3727
vague	-3728
continues	-3729
fac	-3730
Ham	-3731
Mon	-3732
distribute	-3733
ia	-3734
'+'	-3735
ient	-3736
crucial	-3737
pas	-3738
uler	-3739
theo	-3740
polygons	-3741
shel	-3742
knights	-3743
alth	-3744
downto	-3745
penalty	-3746
▁possibly	-3747
concatenation	-3748
MM	-3749
LL	-3750
exits	-3751
factorize	-3752
coloring	-3753
tank	-3754
instance	-3755
bfs	-3756
Code	-3757
started	-3758
English	-3759
comm	-3760
yen	-3761
passed	-3762
swe	-3763
modifying	-3764
uction	-3765
She	-3766
integr	-3767
sections	-3768
theses	-3769
tered	-3770
majority	-3771
server	-3772
sector	-3773
'.'.	-3774
dishes	-3775
xx	-3776
scho	-3777
graphs	-3778
rock	-3779
hu	-3780
lowest	-3781
destroyed	-3782
tag	-3783
moment	-3784
invert	-3785
▁before	-3786
discrepan	-3787
guest	-3788
accur	-3789
signs	-3790
constructed	-3791
compared	-3792
minima	-3793
▁one	-3794
favor	-3795
extract	-3796
hex	-3797
preser	-3798
fol	-3799
tang	-3800
_#_#	-3801
ittle	-3802
travel	-3803
ifting	-3804
sic	-3805
du	-3806
expressed	-3807
forced	-3808
mpossible	-3809
Two	-3810
file	-3811
displacement	-3812
hashi	-3813
minimizes	-3814
subject	-3815
depths	-3816
created	-3817
▁st	-3818
beauty	-3819
factorials	-3820
probabilities	-3821
??	-3822
Using	-3823
research	-3824
properties	-3825
bow	-3826
aaaa	-3827
parentheses	-3828
accumulate	-3829
queen	-3830
brute	-3831
varying	-3832
collecting	-3833
elect	-3834
clar	-3835
▁those	-3836
lack	-3837
cp	-3838
issue	-3839
naive	-3840
classes	-3841
Position	-3842
info	-3843
▁sm	-3844
ahashi	-3845
hence	-3846
Its	-3847
fails	-3848
updating	-3849
▁element	-3850
thesis	-3851
▁]['	-3852
unknown	-3853
sci	-3854
body	-3855
multiplicative	-3856
located	-3857
apple	-3858
lca	-3859
cook	-3860
stors	-3861
dan	-3862
pushed	-3863
▁root	-3864
calls	-3865
similarly	-3866
throw	-3867
'?',	-3868
chess	-3869
finite	-3870
mix	-3871
charge	-3872
cance	-3873
anywhere	-3874
slope	-3875
urations	-3876
dependencies	-3877
II	-3878
Par	-3879
nu	-3880
ney	-3881
define	-3882
boys	-3883
Time	-3884
Merge	-3885
Mark	-3886
branches	-3887
midpoint	-3888
precedence	-3889
holes	-3890
pendi	-3891
fficiency	-3892
SB	-3893
generates	-3894
setup	-3895
simply	-3896
ana	-3897
grouped	-3898
encry	-3899
brings	-3900
stairs	-3901
likes	-3902
assumption	-3903
pendicular	-3904
radii	-3905
aur	-3906
sem	-3907
▁dy	-3908
mapped	-3909
turned	-3910
competition	-3911
trig	-3912
assigning	-3913
capital	-3914
contrib	-3915
maximizes	-3916
intensive	-3917
module	-3918
ley	-3919
atory	-3920
teach	-3921
triples	-3922
tribut	-3923
ancestors	-3924
bars	-3925
arranging	-3926
aro	-3927
aligned	-3928
coords	-3929
LIS	-3930
sometimes	-3931
WB	-3932
perpendicular	-3933
dri	-3934
nums	-3935
kil	-3936
gold	-3937
Perform	-3938
poses	-3939
knowing	-3940
tt	-3941
properly	-3942
tourn	-3943
bottle	-3944
Takahashi	-3945
vy	-3946
elimination	-3947
compression	-3948
users	-3949
indexed	-3950
ky	-3951
leap	-3952
appending	-3953
testing	-3954
border	-3955
subtracted	-3956
entran	-3957
seq	-3958
ands	-3959
unvisited	-3960
bur	-3961
Pop	-3962
▁nodes	-3963
▁idx	-3964
pawn	-3965
recheck	-3966
▁tuple	-3967
Sol	-3968
isqrt	-3969
],	-3970
strong	-3971
discrepancy	-3972
tackle	-3973
mu	-3974
qual	-3975
switches	-3976
explo	-3977
AS	-3978
▁cnt	-3979
school	-3980
rain	-3981
CP	-3982
skips	-3983
Binary	-3984
Ret	-3985
tie	-3986
▁*(-	-3987
Stand	-3988
tower	-3989
doll	-3990
relations	-3991
partial	-3992
deal	-3993
Return	-3994
kind	-3995
monsters	-3996
definition	-3997
▁}:	-3998
activated	-3999
bonus	-4000
errors	-4001
substr	-4002
denominations	-4003
chocol	-4004
efficiency	-4005
parsing	-4006
▁Q	-4007
determining	-4008
OI	-4009
mention	-4010
▁int	-4011
hist	-4012
pace	-4013
vx	-4014
'+',	-4015
matrices	-4016
Standard	-4017
---	-4018
hints	-4019
▁}).	-4020
neare	-4021
Apply	-4022
object	-4023
Swap	-4024
meaning	-4025
arm	-4026
nearest	-4027
▁&	-4028
▁color	-4029
press	-4030
▁{	-4031
Keep	-4032
Need	-4033
Am	-4034
trains	-4035
hol	-4036
rocks	-4037
Dif	-4038
endpoint	-4039
hypo	-4040
intermedi	-4041
entrance	-4042
watch	-4043
pread	-4044
picture	-4045
pir	-4046
sor	-4047
ER	-4048
entially	-4049
atin	-4050
arios	-4051
▁initial	-4052
relation	-4053
scenarios	-4054
exe	-4055
fold	-4056
▁edge	-4057
treasure	-4058
ivity	-4059
whites	-4060
parities	-4061
Union	-4062
▁None	-4063
flights	-4064
expr	-4065
access	-4066
▁product	-4067
SCC	-4068
prevent	-4069
▁remaining	-4070
bomb	-4071
accept	-4072
toggle	-4073
Berland	-4074
club	-4075
fa	-4076
peaks	-4077
iring	-4078
appends	-4079
completely	-4080
constant	-4081
rep	-4082
ka	-4083
Hand	-4084
shifting	-4085
…,	-4086
▁prime	-4087
questions	-4088
viol	-4089
bought	-4090
subtracts	-4091
subsegment	-4092
ballo	-4093
rating	-4094
indicating	-4095
inequality	-4096
transformations	-4097
fits	-4098
contained	-4099
spread	-4100
frame	-4101
heavy	-4102
Ele	-4103
knows	-4104
songs	-4105
doors	-4106
▁[:-	-4107
submission	-4108
tournament	-4109
Int	-4110
Bet	-4111
ave	-4112
'*'	-4113
Ans	-4114
ships	-4115
enemy	-4116
Te	-4117
identity	-4118
mandatory	-4119
ii	-4120
closure	-4121
infect	-4122
Answer	-4123
DD	-4124
Problem	-4125
imply	-4126
fewer	-4127
▁invalid	-4128
Any	-4129
capacities	-4130
tour	-4131
lease	-4132
hashes	-4133
iting	-4134
teleport	-4135
locked	-4136
status	-4137
sens	-4138
jok	-4139
parameter	-4140
Between	-4141
schedule	-4142
Fl	-4143
gains	-4144
Latin	-4145
Indi	-4146
rection	-4147
shown	-4148
▁elements	-4149
clause	-4150
insertions	-4151
Stack	-4152
uff	-4153
initialize	-4154
'#',	-4155
confused	-4156
pill	-4157
filtered	-4158
Preprocess	-4159
applies	-4160
▁both	-4161
lst	-4162
chr	-4163
suffixes	-4164
reconstruct	-4165
approaches	-4166
Euler	-4167
energy	-4168
computer	-4169
Len	-4170
ders	-4171
xs	-4172
week	-4173
actually	-4174
xj	-4175
ques	-4176
'/	-4177
px	-4178
sca	-4179
substituting	-4180
comparison	-4181
tables	-4182
sav	-4183
Is	-4184
*.	-4185
Ce	-4186
▁]);	-4187
really	-4188
involving	-4189
spr	-4190
configurations	-4191
compo	-4192
align	-4193
near	-4194
tes	-4195
maxima	-4196
duration	-4197
sound	-4198
atur	-4199
lev	-4200
MEX	-4201
hands	-4202
attach	-4203
affected	-4204
Inde	-4205
prin	-4206
fam	-4207
iers	-4208
pu	-4209
leg	-4210
supposed	-4211
jection	-4212
toggles	-4213
fru	-4214
quot	-4215
party	-4216
arrive	-4217
Reverse	-4218
network	-4219
By	-4220
eventually	-4221
upwards	-4222
DEF	-4223
subtraction	-4224
tracked	-4225
instruction	-4226
▁)**	-4227
facing	-4228
rx	-4229
multiplier	-4230
▁other	-4231
health	-4232
caba	-4233
cursor	-4234
State	-4235
pted	-4236
easy	-4237
ban	-4238
meters	-4239
Are	-4240
purposes	-4241
opt	-4242
machine	-4243
bra	-4244
):	-4245
tickets	-4246
history	-4247
zip	-4248
local	-4249
▁π	-4250
iness	-4251
Among	-4252
online	-4253
akes	-4254
cash	-4255
quite	-4256
candy	-4257
▁parent	-4258
igible	-4259
ili	-4260
diam	-4261
entist	-4262
attacks	-4263
ten	-4264
chef	-4265
derived	-4266
produces	-4267
planet	-4268
clas	-4269
crement	-4270
Rever	-4271
theorem	-4272
stamp	-4273
adv	-4274
HP	-4275
faster	-4276
unable	-4277
buying	-4278
sume	-4279
hypothesis	-4280
clip	-4281
▁nd	-4282
Valid	-4283
^=	-4284
didn	-4285
▁now	-4286
uv	-4287
filter	-4288
infected	-4289
pruning	-4290
sx	-4291
drop	-4292
trivi	-4293
Pi	-4294
progress	-4295
vals	-4296
Index	-4297
lan	-4298
received	-4299
replacements	-4300
interesting	-4301
rewritten	-4302
')'	-4303
ams	-4304
SPF	-4305
language	-4306
forces	-4307
Pe	-4308
repeating	-4309
hack	-4310
ids	-4311
tun	-4312
Cost	-4313
indu	-4314
mail	-4315
maze	-4316
▁ac	-4317
boole	-4318
playing	-4319
reflection	-4320
remember	-4321
grow	-4322
composed	-4323
someone	-4324
classic	-4325
currently	-4326
Sk	-4327
visiting	-4328
mes	-4329
▁top	-4330
viewed	-4331
geo	-4332
shelf	-4333
jour	-4334
tangent	-4335
slice	-4336
rored	-4337
liters	-4338
llo	-4339
arrow	-4340
vowel	-4341
ulation	-4342
codes	-4343
relev	-4344
intermediate	-4345
▁Z	-4346
reduction	-4347
dj	-4348
'-'	-4349
relevant	-4350
cake	-4351
ffer	-4352
fing	-4353
coprimes	-4354
saving	-4355
Replace	-4356
More	-4357
ratic	-4358
\\	-4359
chair	-4360
ov	-4361
ned	-4362
mas	-4363
languages	-4364
Indices	-4365
writing	-4366
stable	-4367
chessboard	-4368
predecessor	-4369
package	-4370
cheaper	-4371
oki	-4372
packages	-4373
Res	-4374
▁INF	-4375
silon	-4376
tries	-4377
Insert	-4378
cats	-4379
epsilon	-4380
Select	-4381
ost	-4382
halves	-4383
Path	-4384
descend	-4385
▁diff	-4386
▁...,	-4387
passen	-4388
eliminate	-4389
compan	-4390
indexing	-4391
confir	-4392
custom	-4393
▁edges	-4394
dum	-4395
nuke	-4396
▁third	-4397
tax	-4398
secre	-4399
lifting	-4400
ATK	-4401
buses	-4402
street	-4403
ask	-4404
atest	-4405
mirrored	-4406
connectivity	-4407
clarify	-4408
quadratic	-4409
incremented	-4410
ln	-4411
scientist	-4412
lence	-4413
▁)+(	-4414
blocking	-4415
cipher	-4416
ternary	-4417
fractions	-4418
species	-4419
▁ny	-4420
▁:]:	-4421
SS	-4422
grams	-4423
▁True	-4424
ads	-4425
Repeat	-4426
gory	-4427
nth	-4428
notes	-4429
performing	-4430
refer	-4431
vious	-4432
▁num	-4433
...)	-4434
journey	-4435
buffer	-4436
expressions	-4437
huge	-4438
host	-4439
restaur	-4440
''	-4441
unte	-4442
newline	-4443
=>	-4444
augment	-4445
incrementally	-4446
commun	-4447
▁(),	-4448
messages	-4449
|=	-4450
paid	-4451
bud	-4452
rit	-4453
floors	-4454
▁rd	-4455
sparse	-4456
bullet	-4457
enters	-4458
attemp	-4459
trivial	-4460
rate	-4461
giving	-4462
())	-4463
zen	-4464
CII	-4465
wrap	-4466
discard	-4467
equivalence	-4468
ert	-4469
yo	-4470
ained	-4471
canon	-4472
exceeding	-4473
major	-4474
normalized	-4475
During	-4476
transl	-4477
ja	-4478
bish	-4479
aring	-4480
objects	-4481
Player	-4482
visits	-4483
plat	-4484
hn	-4485
beats	-4486
modulus	-4487
favorite	-4488
irth	-4489
/(	-4490
▁)^(	-4491
distribution	-4492
▁.),	-4493
rail	-4494
isol	-4495
achievable	-4496
alone	-4497
itude	-4498
bounded	-4499
dominated	-4500
greatest	-4501
▁pow	-4502
propos	-4503
quotient	-4504
→-	-4505
-->	-4506
volunte	-4507
bling	-4508
▁at	-4509
asked	-4510
accumulated	-4511
ily	-4512
FenwickTree	-4513
validity	-4514
lt	-4515
inic	-4516
dq	-4517
surplus	-4518
intersects	-4519
deli	-4520
heroes	-4521
requiring	-4522
▁')]	-4523
islands	-4524
popping	-4525
▁col	-4526
▁smallest	-4527
hypot	-4528
plays	-4529
budget	-4530
preserved	-4531
imagine	-4532
canonical	-4533
rounding	-4534
looks	-4535
uniform	-4536
boundaries	-4537
Instead	-4538
▁^{-	-4539
pipe	-4540
decision	-4541
Remain	-4542
territ	-4543
category	-4544
'__	-4545
heads	-4546
marble	-4547
▁list	-4548
Eu	-4549
sphere	-4550
Remaining	-4551
clamp	-4552
painting	-4553
onwards	-4554
org	-4555
iro	-4556
recall	-4557
clone	-4558
performed	-4559
expans	-4560
nm	-4561
diag	-4562
teacher	-4563
pq	-4564
Dist	-4565
determinant	-4566
closer	-4567
killed	-4568
cs	-4569
expectation	-4570
padded	-4571
stdout	-4572
cluster	-4573
birth	-4574
aab	-4575
asks	-4576
execut	-4577
imizing	-4578
exclusive	-4579
bitwise	-4580
Com	-4581
▁lower	-4582
versity	-4583
various	-4584
dd	-4585
Inter	-4586
ghost	-4587
envelo	-4588
denotes	-4589
olution	-4590
thinking	-4591
Get	-4592
▁'=	-4593
OK	-4594
quadran	-4595
Bi	-4596
atic	-4597
reversal	-4598
▁}=	-4599
onto	-4600
potential	-4601
lane	-4602
unction	-4603
uniquely	-4604
colon	-4605
Append	-4606
secret	-4607
liter	-4608
circum	-4609
hs	-4610
▁|)	-4611
Snuke	-4612
▁li	-4613
rus	-4614
▁==	-4615
blow	-4616
▁]?	-4617
▁sh	-4618
rooks	-4619
▁__':	-4620
tech	-4621
pending	-4622
lify	-4623
consistent	-4624
parsed	-4625
chee	-4626
trun	-4627
Length	-4628
rearrange	-4629
whitespace	-4630
ordering	-4631
symbols	-4632
pressed	-4633
dom	-4634
discus	-4635
vailable	-4636
eliminated	-4637
anks	-4638
quadr	-4639
ics	-4640
mass	-4641
flaw	-4642
bowl	-4643
selects	-4644
CT	-4645
typo	-4646
Still	-4647
mpty	-4648
ared	-4649
spend	-4650
SE	-4651
links	-4652
yj	-4653
cmd	-4654
survi	-4655
ories	-4656
fly	-4657
frog	-4658
GCDs	-4659
SegmentTree	-4660
fire	-4661
diffs	-4662
▁iii	-4663
Team	-4664
routes	-4665
redi	-4666
ingredi	-4667
hote	-4668
eaten	-4669
spider	-4670
____	-4671
trial	-4672
em	-4673
Si	-4674
metry	-4675
treated	-4676
modular	-4677
▁dist	-4678
ung	-4679
sounds	-4680
▁digits	-4681
filling	-4682
irection	-4683
army	-4684
jewe	-4685
Que	-4686
▁he	-4687
beat	-4688
Combin	-4689
omial	-4690
entered	-4691
difficulty	-4692
Starting	-4693
hor	-4694
vertically	-4695
acy	-4696
forest	-4697
vict	-4698
izing	-4699
alize	-4700
confirm	-4701
purpose	-4702
chunks	-4703
rolling	-4704
continuous	-4705
har	-4706
presents	-4707
repeats	-4708
MA	-4709
▁]}	-4710
ior	-4711
LCS	-4712
axes	-4713
simplified	-4714
WW	-4715
progres	-4716
remainders	-4717
limits	-4718
provide	-4719
suitable	-4720
▁child	-4721
bab	-4722
cutting	-4723
conclusion	-4724
avg	-4725
vw	-4726
ilater	-4727
modn	-4728
▁by	-4729
IC	-4730
Flip	-4731
Please	-4732
▁)^{	-4733
identif	-4734
bea	-4735
quant	-4736
arrangements	-4737
marbles	-4738
Rot	-4739
ASCII	-4740
prefer	-4741
shuff	-4742
princess	-4743
bring	-4744
▁un	-4745
usu	-4746
symbol	-4747
sider	-4748
gift	-4749
prior	-4750
sian	-4751
traversed	-4752
')'.	-4753
AAAA	-4754
"((	-4755
password	-4756
leep	-4757
assumes	-4758
Consider	-4759
til	-4760
took	-4761
▁J	-4762
Taro	-4763
omor	-4764
isolated	-4765
▁break	-4766
bidirection	-4767
construction	-4768
artic	-4769
night	-4770
payout	-4771
landing	-4772
completed	-4773
fice	-4774
sixth	-4775
dummy	-4776
▁:])	-4777
past	-4778
shops	-4779
property	-4780
instructions	-4781
▁AB	-4782
maintained	-4783
oring	-4784
OO	-4785
radians	-4786
dean	-4787
neighboring	-4788
dc	-4789
ON	-4790
preprocessing	-4791
cows	-4792
evaluate	-4793
integral	-4794
tell	-4795
liked	-4796
movie	-4797
clidean	-4798
▁degree	-4799
eligible	-4800
optional	-4801
hier	-4802
Fact	-4803
qi	-4804
sof	-4805
panel	-4806
crosses	-4807
previously	-4808
breed	-4809
Ga	-4810
TT	-4811
bulb	-4812
soldier	-4813
scan	-4814
seven	-4815
signature	-4816
whole	-4817
stripped	-4818
sport	-4819
stron	-4820
Oper	-4821
hierarch	-4822
▁is	-4823
ited	-4824
▁abba	-4825
atures	-4826
gt	-4827
chord	-4828
considers	-4829
relate	-4830
towers	-4831
consonants	-4832
bag	-4833
submatrix	-4834
bidirectional	-4835
anti	-4836
allocated	-4837
Try	-4838
expansion	-4839
▁set	-4840
Masha	-4841
deep	-4842
meeting	-4843
tally	-4844
bottles	-4845
drops	-4846
simulating	-4847
plant	-4848
|.	-4849
cab	-4850
puzz	-4851
Aoki	-4852
load	-4853
discussed	-4854
'.':	-4855
aster	-4856
reducing	-4857
spir	-4858
purch	-4859
alive	-4860
Valera	-4861
coup	-4862
terminal	-4863
ns	-4864
').	-4865
▁abcd	-4866
Euclidean	-4867
breaking	-4868
Tran	-4869
bask	-4870
planks	-4871
ade	-4872
situ	-4873
'>'	-4874
GB	-4875
xyz	-4876
jan	-4877
▁could	-4878
strongly	-4879
mouse	-4880
▁digit	-4881
Put	-4882
John	-4883
taxi	-4884
gar	-4885
▁nj	-4886
discount	-4887
//=	-4888
expanding	-4889
mana	-4890
.....	-4891
Ciel	-4892
▁ceil	-4893
bytes	-4894
neck	-4895
jk	-4896
helps	-4897
▁":	-4898
rearranged	-4899
progression	-4900
toggled	-4901
presses	-4902
abbit	-4903
cakes	-4904
izes	-4905
months	-4906
Fig	-4907
cheap	-4908
fish	-4909
ono	-4910
hic	-4911
ilateral	-4912
valley	-4913
companies	-4914
%=	-4915
oes	-4916
women	-4917
spiral	-4918
chunk	-4919
mentioned	-4920
Sto	-4921
induced	-4922
treasures	-4923
defe	-4924
With	-4925
db	-4926
mountain	-4927
drinks	-4928
nel	-4929
▁]].	-4930
approximately	-4931
customers	-4932
batt	-4933
files	-4934
bx	-4935
iving	-4936
Dr	-4937
shall	-4938
▁path	-4939
ussian	-4940
▁bb	-4941
Array	-4942
gate	-4943
bed	-4944
batches	-4945
buttons	-4946
egg	-4947
Break	-4948
content	-4949
precise	-4950
ferences	-4951
ady	-4952
▁group	-4953
wol	-4954
vehic	-4955
ris	-4956
Andre	-4957
traversing	-4958
bricks	-4959
AL	-4960
orientations	-4961
ything	-4962
Ma	-4963
ports	-4964
gcds	-4965
'=	-4966
shouldn	-4967
specified	-4968
separately	-4969
phone	-4970
▁rows	-4971
uristic	-4972
tmp	-4973
lift	-4974
captured	-4975
▁code	-4976
tap	-4977
incrementing	-4978
IDs	-4979
Su	-4980
tempor	-4981
vote	-4982
stripe	-4983
sit	-4984
ple	-4985
cj	-4986
attached	-4987
sand	-4988
barri	-4989
heuristic	-4990
dirs	-4991
(|	-4992
ju	-4993
ines	-4994
pup	-4995
▁++	-4996
arcs	-4997
convolution	-4998
chick	-4999
tx	-5000
horizontally	-5001
pixel	-5002
lear	-5003
ware	-5004
Jack	-5005
waiting	-5006
related	-5007
snow	-5008
stacks	-5009
▁north	-5010
Result	-5011
atter	-5012
-(	-5013
additions	-5014
Appro	-5015
engine	-5016
Cell	-5017
shir	-5018
▁case	-5019
chance	-5020
mst	-5021
conflicts	-5022
'<'	-5023
consonant	-5024
running	-5025
exams	-5026
▁'_	-5027
opens	-5028
▁gcd	-5029
checker	-5030
animal	-5031
happy	-5032
Ter	-5033
rub	-5034
usage	-5035
formatted	-5036
shares	-5037
tro	-5038
bulbs	-5039
keeps	-5040
melo	-5041
bombs	-5042
flowers	-5043
LO	-5044
hexagon	-5045
connections	-5046
representations	-5047
mies	-5048
skills	-5049
▁based	-5050
▁))/	-5051
device	-5052
GC	-5053
zebra	-5054
Point	-5055
little	-5056
']	-5057
techni	-5058
receive	-5059
warri	-5060
arrows	-5061
relationsh	-5062
White	-5063
Mr	-5064
elem	-5065
UR	-5066
sche	-5067
spent	-5068
potentially	-5069
Approach	-5070
acyclic	-5071
projection	-5072
lookup	-5073
identical	-5074
vill	-5075
chocolate	-5076
everything	-5077
asso	-5078
intro	-5079
▁cx	-5080
Pot	-5081
▁bc	-5082
lue	-5083
▁day	-5084
propagate	-5085
inequalities	-5086
lm	-5087
▁'))	-5088
ilton	-5089
ications	-5090
cores	-5091
elds	-5092
isions	-5093
np	-5094
pillar	-5095
Numbers	-5096
frozen	-5097
sect	-5098
▁sw	-5099
pixels	-5100
responses	-5101
careful	-5102
uck	-5103
constr	-5104
▁'*	-5105
Distance	-5106
requests	-5107
++++	-5108
hierarchy	-5109
Divide	-5110
virus	-5111
Reversed	-5112
arg	-5113
tual	-5114
loves	-5115
ova	-5116
Hamilton	-5117
happiness	-5118
Ti	-5119
band	-5120
predecessors	-5121
treat	-5122
Hamming	-5123
chairs	-5124
decomp	-5125
Krus	-5126
Parse	-5127
croft	-5128
residual	-5129
algorithms	-5130
Vert	-5131
descendants	-5132
rectangular	-5133
centered	-5134
Where	-5135
guard	-5136
theory	-5137
stays	-5138
boolean	-5139
Limak	-5140
opcroft	-5141
jobs	-5142
stages	-5143
arry	-5144
stamin	-5145
YY	-5146
sheet	-5147
ji	-5148
frac	-5149
}.	-5150
libr	-5151
shared	-5152
Gre	-5153
iodi	-5154
▁ni	-5155
Handle	-5156
shaped	-5157
slim	-5158
▁down	-5159
garland	-5160
pizz	-5161
buildings	-5162
Either	-5163
Trans	-5164
ako	-5165
pad	-5166
.,	-5167
reph	-5168
testcase	-5169
van	-5170
soon	-5171
drawn	-5172
Gaussian	-5173
▁://	-5174
furthest	-5175
devi	-5176
constrained	-5177
▁ti	-5178
▁floor	-5179
evaluation	-5180
Hamiltonian	-5181
ingu	-5182
fenwick	-5183
successor	-5184
▁≠	-5185
Mis	-5186
iled	-5187
Ko	-5188
ym	-5189
"()	-5190
ccw	-5191
corrid	-5192
cb	-5193
Every	-5194
Wr	-5195
pupil	-5196
▁get	-5197
divisions	-5198
introdu	-5199
rj	-5200
definite	-5201
weighted	-5202
Heap	-5203
cups	-5204
tin	-5205
recursionlimit	-5206
vars	-5207
orial	-5208
subjects	-5209
vest	-5210
periods	-5211
unordered	-5212
jud	-5213
belongs	-5214
Final	-5215
chest	-5216
periodi	-5217
turning	-5218
temporary	-5219
▁']:	-5220
>>=	-5221
clean	-5222
pressing	-5223
func	-5224
Karp	-5225
recip	-5226
Potential	-5227
meas	-5228
decry	-5229
saved	-5230
derange	-5231
attacked	-5232
pt	-5233
encrypted	-5234
▁level	-5235
▁Impossible	-5236
Moreover	-5237
associ	-5238
alt	-5239
mice	-5240
world	-5241
ued	-5242
rc	-5243
location	-5244
hid	-5245
Store	-5246
entering	-5247
▁rem	-5248
reaching	-5249
LR	-5250
▁abcdef	-5251
Fifth	-5252
manner	-5253
ios	-5254
accurate	-5255
closes	-5256
▁:-	-5257
anako	-5258
situation	-5259
["	-5260
shi	-5261
isomor	-5262
colorings	-5263
Again	-5264
los	-5265
weap	-5266
hh	-5267
Str	-5268
primitive	-5269
▁empty	-5270
Alex	-5271
pj	-5272
)=	-5273
Positions	-5274
▁}),	-5275
bishop	-5276
safely	-5277
▁('\	-5278
cents	-5279
voters	-5280
clamped	-5281
clim	-5282
chip	-5283
North	-5284
detected	-5285
bounding	-5286
congruence	-5287
infinitely	-5288
tj	-5289
cheapest	-5290
Fri	-5291
Contribut	-5292
sleep	-5293
lost	-5294
genre	-5295
'#':	-5296
gover	-5297
iteratively	-5298
▁bi	-5299
......	-5300
perim	-5301
AN	-5302
formalize	-5303
balloon	-5304
▁required	-5305
Increment	-5306
zom	-5307
Vova	-5308
▁any	-5309
disconnected	-5310
▁`.	-5311
tetra	-5312
Putting	-5313
onic	-5314
dollars	-5315
▁);	-5316
permuted	-5317
LD	-5318
trunc	-5319
envelope	-5320
differs	-5321
brick	-5322
loy	-5323
▁cap	-5324
ram	-5325
contact	-5326
dies	-5327
glass	-5328
ambig	-5329
actors	-5330
frag	-5331
Figure	-5332
acter	-5333
bill	-5334
explain	-5335
Box	-5336
virtual	-5337
cuit	-5338
puzzle	-5339
enemies	-5340
JOI	-5341
},	-5342
DNA	-5343
chicken	-5344
destinations	-5345
ratios	-5346
ga	-5347
repet	-5348
Difference	-5349
denom	-5350
checkerboard	-5351
▁So	-5352
sentence	-5353
medians	-5354
▁)-(	-5355
acces	-5356
▁they	-5357
Unless	-5358
layout	-5359
HT	-5360
spot	-5361
Ant	-5362
contests	-5363
fare	-5364
returning	-5365
performance	-5366
stamina	-5367
Mike	-5368
▁target	-5369
doubling	-5370
ey	-5371
deduplic	-5372
partitioned	-5373
PS	-5374
Some	-5375
mutual	-5376
explore	-5377
dates	-5378
hidden	-5379
pse	-5380
activation	-5381
rout	-5382
comparisons	-5383
▁)],	-5384
jum	-5385
simplifies	-5386
indent	-5387
attribut	-5388
Queries	-5389
Contin	-5390
▁³	-5391
drive	-5392
shots	-5393
KMP	-5394
encounter	-5395
AD	-5396
▁abab	-5397
"-	-5398
ides	-5399
control	-5400
trick	-5401
binomial	-5402
pour	-5403
courses	-5404
interior	-5405
Jiro	-5406
restaurant	-5407
requirement	-5408
Ri	-5409
▁val	-5410
appropri	-5411
duct	-5412
Summing	-5413
champ	-5414
somewhere	-5415
lap	-5416
AR	-5417
lights	-5418
▁already	-5419
monot	-5420
▁"?	-5421
chips	-5422
Red	-5423
▁line	-5424
folder	-5425
Little	-5426
danger	-5427
govern	-5428
nd	-5429
Dima	-5430
Nodes	-5431
additive	-5432
lj	-5433
logarith	-5434
crux	-5435
guests	-5436
bj	-5437
incr	-5438
▁>.	-5439
▁can	-5440
receip	-5441
▁column	-5442
dimensional	-5443
itted	-5444
_#_#_#_#	-5445
quadrant	-5446
shad	-5447
▁none	-5448
sun	-5449
attempt	-5450
unch	-5451
partner	-5452
ground	-5453
exha	-5454
went	-5455
lamps	-5456
Char	-5457
crim	-5458
hitting	-5459
quadrilateral	-5460
lru	-5461
Term	-5462
gems	-5463
hot	-5464
Black	-5465
LCP	-5466
▁)[	-5467
exhaust	-5468
heaps	-5469
Product	-5470
explos	-5471
Ev	-5472
hint	-5473
builds	-5474
dz	-5475
▁`,	-5476
escap	-5477
slices	-5478
ui	-5479
eight	-5480
contributed	-5481
eq	-5482
▁'[	-5483
pseu	-5484
flower	-5485
printing	-5486
conversion	-5487
Operation	-5488
diamond	-5489
shortcut	-5490
Fo	-5491
ffe	-5492
▁ci	-5493
▁previous	-5494
calculations	-5495
gor	-5496
sheep	-5497
rabbit	-5498
legs	-5499
▁res	-5500
hotel	-5501
arriving	-5502
hill	-5503
clude	-5504
Cy	-5505
slots	-5506
spaced	-5507
flags	-5508
adjusting	-5509
("	-5510
lps	-5511
dragon	-5512
▁their	-5513
circuit	-5514
satisfying	-5515
movements	-5516
semi	-5517
Component	-5518
Ds	-5519
▁it	-5520
▁positive	-5521
Vi	-5522
arjan	-5523
pqr	-5524
cler	-5525
boards	-5526
Sc	-5527
Bell	-5528
dark	-5529
ko	-5530
Ivan	-5531
▁key	-5532
writes	-5533
▁≈	-5534
#..	-5535
methods	-5536
edit	-5537
Format	-5538
rase	-5539
'?'.	-5540
obvious	-5541
fre	-5542
adap	-5543
burn	-5544
hp	-5545
'>',	-5546
ww	-5547
definitely	-5548
▁children	-5549
Go	-5550
ghijk	-5551
natur	-5552
▁upper	-5553
war	-5554
temper	-5555
captures	-5556
vec	-5557
▁abs	-5558
opened	-5559
categori	-5560
unblocked	-5561
battle	-5562
rad	-5563
▁sx	-5564
sim	-5565
*,	-5566
sweets	-5567
formatting	-5568
▁horizontal	-5569
mil	-5570
FFFF	-5571
rod	-5572
[(-	-5573
periodic	-5574
Lu	-5575
carrot	-5576
iss	-5577
consum	-5578
combinat	-5579
numerical	-5580
velocity	-5581
Back	-5582
domain	-5583
NP	-5584
ribe	-5585
ride	-5586
Hopcroft	-5587
rais	-5588
""	-5589
organ	-5590
Assume	-5591
▁—	-5592
ube	-5593
Combine	-5594
Monday	-5595
replaces	-5596
government	-5597
nc	-5598
▁best	-5599
independently	-5600
Eulerian	-5601
AM	-5602
permute	-5603
collisions	-5604
clusters	-5605
magn	-5606
useful	-5607
platform	-5608
sumA	-5609
cently	-5610
extens	-5611
inguish	-5612
geometric	-5613
outputting	-5614
His	-5615
typ	-5616
labeled	-5617
standing	-5618
transactions	-5619
love	-5620
wro	-5621
undo	-5622
||	-5623
baa	-5624
Root	-5625
XORs	-5626
Track	-5627
wrote	-5628
▁neighbor	-5629
tens	-5630
requirements	-5631
Solution	-5632
report	-5633
▁state	-5634
BCC	-5635
schedu	-5636
joined	-5637
pushing	-5638
criminal	-5639
crossings	-5640
metal	-5641
counterclockwise	-5642
planar	-5643
pointing	-5644
Skip	-5645
backwards	-5646
planes	-5647
Round	-5648
ker	-5649
ton	-5650
basket	-5651
clauses	-5652
shish	-5653
collide	-5654
Dig	-5655
lmno	-5656
seeing	-5657
kingdom	-5658
War	-5659
repaint	-5660
▁connected	-5661
$,	-5662
Turn	-5663
zing	-5664
dn	-5665
pool	-5666
Place	-5667
GF	-5668
▁valid	-5669
Sasha	-5670
trap	-5671
recompute	-5672
often	-5673
▁vx	-5674
Fill	-5675
trips	-5676
proposal	-5677
▁base	-5678
unused	-5679
Pl	-5680
pc	-5681
hub	-5682
dump	-5683
etro	-5684
Dele	-5685
cancel	-5686
receipt	-5687
vehicle	-5688
*(	-5689
disk	-5690
Dinic	-5691
▁points	-5692
Area	-5693
osthen	-5694
planets	-5695
accepted	-5696
bisector	-5697
osthenes	-5698
Queue	-5699
Simul	-5700
passenger	-5701
hop	-5702
joy	-5703
▁ 	-5704
tiling	-5705
Continue	-5706
Pers	-5707
▁columns	-5708
▁different	-5709
transaction	-5710
Op	-5711
combinatorial	-5712
incip	-5713
spiders	-5714
describe	-5715
checkpoints	-5716
socks	-5717
▁MOD	-5718
grand	-5719
arth	-5720
territory	-5721
timestamp	-5722
encryption	-5723
Level	-5724
lmnopqr	-5725
Friend	-5726
finger	-5727
anya	-5728
family	-5729
ordin	-5730
cookies	-5731
impro	-5732
whichever	-5733
spect	-5734
atrain	-5735
Adj	-5736
uncovered	-5737
xygen	-5738
Win	-5739
quality	-5740
trigger	-5741
ghijklmnopqr	-5742
nail	-5743
□□	-5744
eats	-5745
▁counts	-5746
recorded	-5747
\{	-5748
quatrain	-5749
cream	-5750
checkpoint	-5751
haven	-5752
removals	-5753
mirrors	-5754
placements	-5755
dirty	-5756
storage	-5757
yield	-5758
connection	-5759
chrom	-5760
successful	-5761
weak	-5762
frozenset	-5763
Form	-5764
cool	-5765
tags	-5766
ircle	-5767
pand	-5768
erase	-5769
EE	-5770
modifiers	-5771
TV	-5772
vessel	-5773
Contribution	-5774
picked	-5775
totals	-5776
attacking	-5777
Andrew	-5778
primary	-5779
uts	-5780
crimin	-5781
.#.	-5782
dog	-5783
"?	-5784
▁pre	-5785
percent	-5786
'_	-5787
shadow	-5788
avoiding	-5789
chromatic	-5790
LN	-5791
necklace	-5792
Proceed	-5793
actor	-5794
projects	-5795
'^	-5796
stuvw	-5797
Extract	-5798
tunately	-5799
shortcuts	-5800
irrelevant	-5801
semic	-5802
composites	-5803
Cand	-5804
avoids	-5805
criminant	-5806
buyer	-5807
eating	-5808
princip	-5809
application	-5810
figures	-5811
reds	-5812
▁]][	-5813
fers	-5814
expanded	-5815
lined	-5816
symmetry	-5817
alternately	-5818
aria	-5819
said	-5820
balloons	-5821
bank	-5822
dynamically	-5823
kx	-5824
aves	-5825
citi	-5826
loyd	-5827
▁)]:	-5828
▁Fenwick	-5829
Upon	-5830
mixed	-5831
▁that	-5832
countries	-5833
(<=	-5834
oxygen	-5835
dependent	-5836
terminate	-5837
ingredients	-5838
Top	-5839
▁]/	-5840
cheese	-5841
(>=	-5842
bob	-5843
bub	-5844
constructing	-5845
pig	-5846
ome	-5847
reja	-5848
prints	-5849
dash	-5850
polyline	-5851
Floyd	-5852
winners	-5853
▁htt	-5854
▁×	-5855
aneous	-5856
exhausted	-5857
celer	-5858
arbitrarily	-5859
***	-5860
regex	-5861
resource	-5862
selections	-5863
distributed	-5864
rolls	-5865
sectors	-5866
ases	-5867
usual	-5868
▁'},	-5869
himself	-5870
bug	-5871
causes	-5872
driver	-5873
runner	-5874
▁wait	-5875
Ashish	-5876
phis	-5877
vity	-5878
Target	-5879
cliques	-5880
Igor	-5881
beam	-5882
Of	-5883
context	-5884
experim	-5885
positives	-5886
elevators	-5887
iday	-5888
volunteer	-5889
'*',	-5890
rhs	-5891
death	-5892
uling	-5893
oland	-5894
indicated	-5895
)^	-5896
rs	-5897
verses	-5898
lookups	-5899
chocolates	-5900
'?':	-5901
beads	-5902
leys	-5903
falls	-5904
▁cell	-5905
itivity	-5906
skipping	-5907
Construct	-5908
EN	-5909
castle	-5910
university	-5911
gas	-5912
mind	-5913
decompose	-5914
yp	-5915
magnitude	-5916
bius	-5917
lying	-5918
modification	-5919
originally	-5920
▁px	-5921
packet	-5922
container	-5923
blings	-5924
▁three	-5925
ratosthenes	-5926
idi	-5927
stolen	-5928
Eratosthenes	-5929
Person	-5930
slot	-5931
▁result	-5932
alice	-5933
loser	-5934
triangular	-5935
enclosed	-5936
mic	-5937
▁between	-5938
'(':	-5939
Over	-5940
Run	-5941
ster	-5942
monotonic	-5943
mit	-5944
PP	-5945
xn	-5946
ches	-5947
scheduling	-5948
sword	-5949
FO	-5950
ists	-5951
criter	-5952
deterministic	-5953
▁swap	-5954
stripping	-5955
▁of	-5956
anymore	-5957
requis	-5958
Elements	-5959
\(	-5960
IB	-5961
IV	-5962
dt	-5963
naively	-5964
stuvwxyz	-5965
Warshall	-5966
diameters	-5967
transport	-5968
aren	-5969
▁log	-5970
frames	-5971
executed	-5972
GG	-5973
▁cycle	-5974
▁maybe	-5975
servers	-5976
ulls	-5977
natural	-5978
discriminant	-5979
bullets	-5980
faction	-5981
▁._	-5982
Conne	-5983
beta	-5984
immediate	-5985
▁due	-5986
det	-5987
aaa	-5988
coded	-5989
Mid	-5990
▁processed	-5991
▁correct	-5992
scal	-5993
atan	-5994
pent	-5995
feed	-5996
proj	-5997
sea	-5998
shoot	-5999
imon	-6000
jumping	-6001
▁vertical	-6002
reject	-6003
statues	-6004
dependency	-6005
Tarjan	-6006
categories	-6007
Gray	-6008
instances	-6009
climb	-6010
demand	-6011
ambiguous	-6012
ultaneous	-6013
Poke	-6014
delivery	-6015
influ	-6016
jewels	-6017
▁output	-6018
woman	-6019
appearing	-6020
articulation	-6021
breeders	-6022
famili	-6023
coef	-6024
summed	-6025
appropriate	-6026
cw	-6027
nets	-6028
stro	-6029
err	-6030
escape	-6031
Er	-6032
bun	-6033
une	-6034
Available	-6035
ahn	-6036
scale	-6037
equally	-6038
statements	-6039
simultaneous	-6040
ury	-6041
Adjac	-6042
combo	-6043
bags	-6044
varies	-6045
alan	-6046
Sereja	-6047
staircase	-6048
scre	-6049
prerequis	-6050
enumerating	-6051
stood	-6052
Simulate	-6053
plate	-6054
▁abacaba	-6055
great	-6056
Bit	-6057
▁ord	-6058
repair	-6059
ational	-6060
complicate	-6061
nr	-6062
▁white	-6063
lantern	-6064
tor	-6065
coder	-6066
office	-6067
alls	-6068
logs	-6069
flawed	-6070
Comm	-6071
pers	-6072
Dec	-6073
Value	-6074
ideal	-6075
▁ca	-6076
az	-6077
sumB	-6078
gend	-6079
Candid	-6080
▁allowed	-6081
subsegments	-6082
Ay	-6083
ete	-6084
derangement	-6085
sec	-6086
postfix	-6087
Def	-6088
diagonally	-6089
gem	-6090
▁integer	-6091
unions	-6092
creature	-6093
buys	-6094
brother	-6095
surrounded	-6096
dance	-6097
Neighb	-6098
equality	-6099
erased	-6100
fort	-6101
allocate	-6102
Bj	-6103
deriv	-6104
anta	-6105
existence	-6106
WBWB	-6107
corridor	-6108
sheets	-6109
'#'.	-6110
South	-6111
inear	-6112
coinc	-6113
multipliers	-6114
rb	-6115
reference	-6116
intersecting	-6117
sweep	-6118
Dep	-6119
wire	-6120
indicate	-6121
dens	-6122
manually	-6123
iso	-6124
City	-6125
mush	-6126
Dasha	-6127
pn	-6128
outcomes	-6129
▁exclusive	-6130
clerk	-6131
dangerous	-6132
restri	-6133
shapes	-6134
Jap	-6135
fields	-6136
useum	-6137
▁black	-6138
displayed	-6139
::	-6140
'-'.	-6141
resist	-6142
▁possible	-6143
▁)|	-6144
Proba	-6145
dominant	-6146
▁difference	-6147
river	-6148
notation	-6149
augmented	-6150
tein	-6151
$.	-6152
^^	-6153
sorts	-6154
generation	-6155
repeatedly	-6156
XY	-6157
held	-6158
shuffle	-6159
draws	-6160
_,	-6161
Moving	-6162
HH	-6163
fingers	-6164
"+	-6165
temperature	-6166
SCCs	-6167
Peter	-6168
gave	-6169
conver	-6170
Our	-6171
ahead	-6172
substitute	-6173
museum	-6174
.......	-6175
▁)%	-6176
crush	-6177
Xi	-6178
ades	-6179
iest	-6180
flows	-6181
UU	-6182
sig	-6183
rice	-6184
holiday	-6185
recipe	-6186
asteris	-6187
▁bottom	-6188
blanks	-6189
HI	-6190
bear	-6191
▁there	-6192
▁adding	-6193
criteria	-6194
junction	-6195
▁iv	-6196
promis	-6197
.#	-6198
substitutions	-6199
Kahn	-6200
parabo	-6201
programmer	-6202
concatenate	-6203
truck	-6204
mx	-6205
adjustment	-6206
----	-6207
cater	-6208
Impossible	-6209
digital	-6210
spo	-6211
Shift	-6212
poured	-6213
ski	-6214
▁:].	-6215
consecutively	-6216
########	-6217
male	-6218
deletes	-6219
paying	-6220
looping	-6221
computers	-6222
interested	-6223
RA	-6224
passengers	-6225
demon	-6226
kid	-6227
CA	-6228
typed	-6229
Krusky	-6230
undefined	-6231
maximizing	-6232
RY	-6233
LNDS	-6234
poli	-6235
uncolored	-6236
▁on	-6237
▁={	-6238
stripes	-6239
coupons	-6240
ouch	-6241
bigger	-6242
borders	-6243
precomputation	-6244
Fr	-6245
almost	-6246
understood	-6247
arli	-6248
mn	-6249
lat	-6250
operands	-6251
propagation	-6252
Road	-6253
throws	-6254
concept	-6255
plank	-6256
▁pair	-6257
advance	-6258
valleys	-6259
transpose	-6260
Fur	-6261
preferred	-6262
Vl	-6263
savings	-6264
Handling	-6265
generalize	-6266
reflections	-6267
deepest	-6268
Cj	-6269
display	-6270
unchanged	-6271
bone	-6272
hibit	-6273
race	-6274
floats	-6275
▁op	-6276
Divided	-6277
▁red	-6278
thread	-6279
pin	-6280
grows	-6281
'*':	-6282
technique	-6283
▁en	-6284
HLD	-6285
minor	-6286
pipes	-6287
mins	-6288
spray	-6289
byte	-6290
issors	-6291
magnets	-6292
Uni	-6293
screen	-6294
interpre	-6295
sensitivity	-6296
Nim	-6297
flat	-6298
fruit	-6299
approached	-6300
raised	-6301
trio	-6302
Last	-6303
stock	-6304
dealing	-6305
bacter	-6306
AAB	-6307
▁cba	-6308
mismatch	-6309
vouch	-6310
▁block	-6311
orm	-6312
▁!)	-6313
queues	-6314
▁>,	-6315
abcd	-6316
▁char	-6317
'.')	-6318
volunteers	-6319
Does	-6320
ingle	-6321
tells	-6322
Connect	-6323
collects	-6324
frequent	-6325
esha	-6326
▁let	-6327
aller	-6328
satisfaction	-6329
▁xy	-6330
principle	-6331
rope	-6332
sold	-6333
losses	-6334
library	-6335
clubs	-6336
unders	-6337
yl	-6338
▁remove	-6339
sender	-6340
distinguish	-6341
unday	-6342
inverses	-6343
OSS	-6344
Maria	-6345
partners	-6346
▁term	-6347
caterpillar	-6348
Cat	-6349
Sorting	-6350
mistakes	-6351
▁high	-6352
arrived	-6353
contract	-6354
nice	-6355
Divis	-6356
trace	-6357
▁once	-6358
EO	-6359
IBLE	-6360
inverted	-6361
tc	-6362
▁times	-6363
gered	-6364
fortunately	-6365
nin	-6366
▁$.	-6367
warehouse	-6368
initializing	-6369
wolf	-6370
Lesha	-6371
▁query	-6372
OSSIBLE	-6373
asking	-6374
Function	-6375
yk	-6376
numpy	-6377
Write	-6378
packets	-6379
judge	-6380
movies	-6381
Columns	-6382
scope	-6383
manual	-6384
subordin	-6385
pizza	-6386
phy	-6387
...).	-6388
ee	-6389
▁adjacent	-6390
minority	-6391
pyram	-6392
pirate	-6393
String	-6394
polynomials	-6395
effectively	-6396
ism	-6397
yellow	-6398
jack	-6399
▁aaaa	-6400
Hanako	-6401
aturday	-6402
itly	-6403
bie	-6404
▁.).	-6405
Ho	-6406
subgrid	-6407
jokers	-6408
served	-6409
grade	-6410
King	-6411
Event	-6412
surviv	-6413
▁reverse	-6414
prepare	-6415
#,	-6416
pins	-6417
guesses	-6418
squ	-6419
activate	-6420
Square	-6421
Ser	-6422
▁))^	-6423
uf	-6424
dar	-6425
rephrase	-6426
queried	-6427
{(	-6428
bam	-6429
Those	-6430
individually	-6431
seem	-6432
birthday	-6433
prioriti	-6434
missions	-6435
unprocessed	-6436
▁@	-6437
Error	-6438
piran	-6439
Decrement	-6440
▁aabb	-6441
repetition	-6442
projections	-6443
arms	-6444
defines	-6445
nb	-6446
'<',	-6447
elsewhere	-6448
NG	-6449
lef	-6450
sj	-6451
tram	-6452
busy	-6453
ladd	-6454
refers	-6455
ava	-6456
RE	-6457
pairings	-6458
ower	-6459
purchase	-6460
young	-6461
Simp	-6462
promising	-6463
Building	-6464
Sep	-6465
develo	-6466
invari	-6467
deb	-6468
vas	-6469
ocarp	-6470
suits	-6471
Bes	-6472
brevi	-6473
bubble	-6474
collinear	-6475
simultaneously	-6476
▁MB	-6477
▁ne	-6478
ety	-6479
▁'][	-6480
horse	-6481
animals	-6482
bread	-6483
triggered	-6484
▁]],	-6485
manag	-6486
spans	-6487
unlocked	-6488
portal	-6489
lefto	-6490
explic	-6491
community	-6492
today	-6493
▁Alice	-6494
[])	-6495
scheduled	-6496
jun	-6497
▁link	-6498
licity	-6499
scheme	-6500
simplicity	-6501
surface	-6502
etromin	-6503
live	-6504
Allen	-6505
Sy	-6506
ignoring	-6507
ama	-6508
serve	-6509
melody	-6510
MAX	-6511
rr	-6512
bor	-6513
tests	-6514
▁east	-6515
dee	-6516
approximation	-6517
Prim	-6518
NOT	-6519
flex	-6520
joker	-6521
abbrevi	-6522
siblings	-6523
functools	-6524
cba	-6525
payment	-6526
tetromin	-6527
▁west	-6528
parties	-6529
▁lowercase	-6530
reser	-6531
panels	-6532
▁though	-6533
fine	-6534
Pokemon	-6535
LSB	-6536
influence	-6537
perp	-6538
pseudo	-6539
returned	-6540
▁available	-6541
PQ	-6542
▁(|	-6543
amounts	-6544
Equ	-6545
vive	-6546
unbounded	-6547
dists	-6548
translation	-6549
arian	-6550
reh	-6551
pawns	-6552
plates	-6553
Invalid	-6554
fragment	-6555
BST	-6556
zens	-6557
concatenating	-6558
'@	-6559
transfers	-6560
Part	-6561
juice	-6562
supply	-6563
survive	-6564
external	-6565
▁direction	-6566
proced	-6567
Neighbors	-6568
▁}(	-6569
▁]|	-6570
▁)}.	-6571
improve	-6572
operand	-6573
bands	-6574
'):	-6575
?,	-6576
▁»	-6577
systems	-6578
memoize	-6579
modifications	-6580
ron	-6581
Down	-6582
sinks	-6583
nearly	-6584
rubber	-6585
barrier	-6586
xk	-6587
▁move	-6588
acceler	-6589
relationships	-6590
istant	-6591
Arrange	-6592
maximums	-6593
las	-6594
▁!.	-6595
wered	-6596
doubled	-6597
Me	-6598
UN	-6599
scaled	-6600
offer	-6601
provid	-6602
($	-6603
▁some	-6604
sock	-6605
wash	-6606
shirts	-6607
decrypted	-6608
uary	-6609
East	-6610
Cha	-6611
coeffs	-6612
archive	-6613
▁hello	-6614
sitting	-6615
fair	-6616
▁'])	-6617
Den	-6618
tent	-6619
Child	-6620
specify	-6621
generator	-6622
gard	-6623
chose	-6624
▁prob	-6625
atever	-6626
magical	-6627
ote	-6628
Pairs	-6629
▁call	-6630
Wor	-6631
eness	-6632
cargo	-6633
▁suffix	-6634
submissions	-6635
ief	-6636
rho	-6637
parame	-6638
precycle	-6639
Monocarp	-6640
)))	-6641
▁}"	-6642
astya	-6643
▁weight	-6644
aligns	-6645
infeasible	-6646
easiest	-6647
calculates	-6648
hood	-6649
spine	-6650
'/'	-6651
Maintain	-6652
CPC	-6653
▁}{	-6654
'+':	-6655
consume	-6656
ox	-6657
solid	-6658
avail	-6659
recei	-6660
subgroup	-6661
accurately	-6662
cas	-6663
listed	-6664
familiar	-6665
identifier	-6666
▁abb	-6667
boat	-6668
nk	-6669
whatever	-6670
▁visited	-6671
ables	-6672
login	-6673
anagram	-6674
bel	-6675
▁))=	-6676
normally	-6677
bee	-6678
▁ababa	-6679
minimizing	-6680
surn	-6681
Anton	-6682
ani	-6683
ramp	-6684
ficial	-6685
▁$,	-6686
peg	-6687
kills	-6688
Flipping	-6689
warriors	-6690
Before	-6691
weapon	-6692
eggs	-6693
▁forward	-6694
▁”	-6695
pupils	-6696
rees	-6697
Heidi	-6698
density	-6699
finally	-6700
HS	-6701
caught	-6702
backbone	-6703
territories	-6704
Lose	-6705
cers	-6706
leftover	-6707
denomination	-6708
rearrangement	-6709
omin	-6710
dinic	-6711
')':	-6712
leav	-6713
mutable	-6714
quantity	-6715
oy	-6716
sends	-6717
Saturday	-6718
sen	-6719
Formally	-6720
Ball	-6721
oted	-6722
sha	-6723
▁test	-6724
experi	-6725
curren	-6726
desk	-6727
prize	-6728
stepping	-6729
Cond	-6730
Block	-6731
yy	-6732
decr	-6733
Vasili	-6734
▁whether	-6735
socket	-6736
photos	-6737
Vasiliy	-6738
matchings	-6739
deduplicate	-6740
divisibility	-6741
mous	-6742
Imp	-6743
cave	-6744
anges	-6745
Points	-6746
explosion	-6747
PA	-6748
insort	-6749
apers	-6750
Odd	-6751
wave	-6752
abacaba	-6753
formulas	-6754
Tri	-6755
cloud	-6756
parser	-6757
streets	-6758
training	-6759
decreased	-6760
enclosing	-6761
Color	-6762
anese	-6763
plants	-6764
beacons	-6765
MIT	-6766
commod	-6767
zombie	-6768
citizens	-6769
reaction	-6770
Ax	-6771
wast	-6772
perms	-6773
slight	-6774
HEF	-6775
pb	-6776
unassigned	-6777
jewel	-6778
sprayed	-6779
compreh	-6780
drawing	-6781
▁)])	-6782
ald	-6783
email	-6784
conduct	-6785
'()	-6786
wraps	-6787
Element	-6788
::-	-6789
kar	-6790
police	-6791
pyramid	-6792
separator	-6793
xp	-6794
enario	-6795
vac	-6796
hate	-6797
sbegin	-6798
interleav	-6799
platforms	-6800
resolve	-6801
▁le	-6802
Oleg	-6803
Sunday	-6804
'\	-6805
partitioning	-6806
▁bba	-6807
magnet	-6808
address	-6809
ister	-6810
Rearranged	-6811
client	-6812
bou	-6813
Expand	-6814
stands	-6815
Tok	-6816
▁la	-6817
▁+...	-6818
scientists	-6819
records	-6820
gly	-6821
taps	-6822
▁))]	-6823
predict	-6824
district	-6825
confusion	-6826
(.	-6827
PC	-6828
abb	-6829
orize	-6830
descriptions	-6831
sky	-6832
▁]^	-6833
dry	-6834
lish	-6835
alarm	-6836
walks	-6837
holder	-6838
resets	-6839
champion	-6840
$$	-6841
plans	-6842
mismatches	-6843
Aj	-6844
vj	-6845
Delete	-6846
Blue	-6847
portion	-6848
mater	-6849
contestant	-6850
NN	-6851
ivered	-6852
misunderstood	-6853
rup	-6854
cold	-6855
bene	-6856
wasn	-6857
▁^{(	-6858
Stud	-6859
▁this	-6860
decimals	-6861
preprocess	-6862
RB	-6863
lya	-6864
enqueue	-6865
explicitly	-6866
ske	-6867
oooo	-6868
MPOSSIBLE	-6869
Unfortunately	-6870
vv	-6871
bouqu	-6872
airport	-6873
piranha	-6874
▁'-	-6875
Tour	-6876
kady	-6877
onoi	-6878
Middle	-6879
oronoi	-6880
▁aaaaa	-6881
Simplify	-6882
carries	-6883
painter	-6884
singlet	-6885
boss	-6886
bacteria	-6887
Koa	-6888
wish	-6889
hostname	-6890
abab	-6891
soft	-6892
cheeses	-6893
circumference	-6894
...]	-6895
delivered	-6896
restaurants	-6897
sb	-6898
BBB	-6899
delim	-6900
spacesh	-6901
▁The	-6902
episo	-6903
experiment	-6904
upto	-6905
warp	-6906
argum	-6907
pruned	-6908
selling	-6909
positioned	-6910
hind	-6911
Misha	-6912
Bot	-6913
Rule	-6914
beacon	-6915
attributes	-6916
ract	-6917
variation	-6918
Spe	-6919
ubes	-6920
▁|).	-6921
Arkady	-6922
Scenario	-6923
Ni	-6924
acor	-6925
noun	-6926
owski	-6927
vasya	-6928
answered	-6929
comprehens	-6930
acc	-6931
simplest	-6932
▁bits	-6933
translate	-6934
correspondingly	-6935
beg	-6936
bees	-6937
touching	-6938
OB	-6939
Tra	-6940
kip	-6941
▁He	-6942
▁XOR	-6943
extre	-6944
uting	-6945
prohibit	-6946
trol	-6947
occurred	-6948
buns	-6949
puts	-6950
zeroes	-6951
cv	-6952
otu	-6953
hable	-6954
slightly	-6955
xa	-6956
finitely	-6957
gym	-6958
ingredient	-6959
▁initially	-6960
LOG	-6961
▁has	-6962
Earth	-6963
(()	-6964
fruits	-6965
randomly	-6966
mods	-6967
'!	-6968
>=-	-6969
▁good	-6970
trim	-6971
districts	-6972
phic	-6973
saw	-6974
tle	-6975
abba	-6976
Nastya	-6977
inkowski	-6978
bills	-6979
raise	-6980
chords	-6981
▁co	-6982
bugs	-6983
Three	-6984
pm	-6985
walking	-6986
clipping	-6987
Separ	-6988
feels	-6989
staying	-6990
summand	-6991
pictures	-6992
ina	-6993
implic	-6994
theore	-6995
decomposed	-6996
dealer	-6997
identify	-6998
NF	-6999
guy	-7000
Rotate	-7001
▁°	-7002
commut	-7003
Voronoi	-7004
criminals	-7005
▁earli	-7006
derivative	-7007
analy	-7008
tried	-7009
"#	-7010
"(()	-7011
cute	-7012
defense	-7013
asterisks	-7014
Base	-7015
worth	-7016
queens	-7017
Choosing	-7018
Minkowski	-7019
computational	-7020
rd	-7021
objective	-7022
isomorphic	-7023
izu	-7024
Vertex	-7025
hed	-7026
inite	-7027
IOI	-7028
htt	-7029
'-':	-7030
cian	-7031
phism	-7032
LM	-7033
▁di	-7034
behind	-7035
Dy	-7036
▁([(	-7037
associative	-7038
reorder	-7039
balances	-7040
'[	-7041
(~	-7042
Rows	-7043
Inserting	-7044
SAM	-7045
[[-	-7046
mming	-7047
▁math	-7048
weeks	-7049
describes	-7050
carried	-7051
bk	-7052
▁bu	-7053
▁").	-7054
cryst	-7055
males	-7056
salary	-7057
clipped	-7058
Reversing	-7059
'|	-7060
rays	-7061
ulus	-7062
▁))).	-7063
factory	-7064
Emp	-7065
congruences	-7066
gey	-7067
phant	-7068
truth	-7069
pun	-7070
verage	-7071
appended	-7072
visibility	-7073
Rab	-7074
XORed	-7075
unary	-7076
▁rank	-7077
startswith	-7078
Mö	-7079
MSB	-7080
suffice	-7081
contradict	-7082
indefinitely	-7083
▁ri	-7084
fence	-7085
yv	-7086
cubed	-7087
▁take	-7088
Ensure	-7089
pirates	-7090
rv	-7091
oct	-7092
jury	-7093
▁()):	-7094
▁regardless	-7095
Her	-7096
sie	-7097
ninja	-7098
decremented	-7099
▁yi	-7100
extreme	-7101
warrior	-7102
fb	-7103
TSP	-7104
describing	-7105
variations	-7106
IE	-7107
hase	-7108
acity	-7109
design	-7110
▁update	-7111
recently	-7112
incorrectly	-7113
dijk	-7114
mole	-7115
superset	-7116
exponentially	-7117
hope	-7118
slic	-7119
Möbius	-7120
Ram	-7121
twe	-7122
bowls	-7123
taxis	-7124
booleans	-7125
HE	-7126
*..	-7127
gates	-7128
Iah	-7129
oday	-7130
Maximum	-7131
Sm	-7132
▁elif	-7133
mono	-7134
▁you	-7135
containers	-7136
neighborhood	-7137
IP	-7138
unpaired	-7139
factorizing	-7140
slimes	-7141
acorns	-7142
▁exponent	-7143
dm	-7144
rob	-7145
Probably	-7146
dijkstra	-7147
gone	-7148
adane	-7149
measured	-7150
enuse	-7151
fights	-7152
guarantee	-7153
cil	-7154
urce	-7155
Divisors	-7156
lx	-7157
raw	-7158
bulls	-7159
Decimal	-7160
Des	-7161
artes	-7162
details	-7163
Segments	-7164
KE	-7165
solv	-7166
▁])-	-7167
outlined	-7168
-,	-7169
ains	-7170
Harry	-7171
avier	-7172
▁blue	-7173
conclude	-7174
mutation	-7175
▁ascending	-7176
edia	-7177
volumes	-7178
▁something	-7179
study	-7180
singles	-7181
psy	-7182
▁mer	-7183
basic	-7184
click	-7185
carrots	-7186
simplify	-7187
<<=	-7188
Pass	-7189
freely	-7190
mappings	-7191
mber	-7192
junctions	-7193
ribut	-7194
defeat	-7195
appe	-7196
▁freq	-7197
▁another	-7198
pet	-7199
null	-7200
stem	-7201
Today	-7202
MMMM	-7203
webs	-7204
distur	-7205
gender	-7206
activity	-7207
speeds	-7208
folders	-7209
▁cd	-7210
ased	-7211
violate	-7212
hypotenuse	-7213
harmon	-7214
Bru	-7215
▁part	-7216
trimin	-7217
wolves	-7218
tied	-7219
rings	-7220
wires	-7221
deadline	-7222
Comparing	-7223
applicant	-7224
testcases	-7225
AI	-7226
anagrams	-7227
barriers	-7228
Aho	-7229
asick	-7230
▁parity	-7231
deeper	-7232
shirt	-7233
pocket	-7234
harvest	-7235
▁)*(-	-7236
exchanges	-7237
insufficient	-7238
Trip	-7239
▁problem	-7240
midpoints	-7241
acing	-7242
RI	-7243
aris	-7244
tubes	-7245
manager	-7246
colorful	-7247
ened	-7248
▁dir	-7249
reduci	-7250
extends	-7251
programs	-7252
invariant	-7253
relationship	-7254
[],	-7255
▁leaf	-7256
Solving	-7257
Game	-7258
Equation	-7259
creatures	-7260
permuting	-7261
Digits	-7262
▁First	-7263
AK	-7264
camel	-7265
normalize	-7266
semicircle	-7267
▁negative	-7268
daugh	-7269
freezing	-7270
template	-7271
branching	-7272
extension	-7273
video	-7274
▁grid	-7275
clearly	-7276
dancers	-7277
ified	-7278
Catalan	-7279
ium	-7280
assumed	-7281
▁Second	-7282
tm	-7283
Light	-7284
dough	-7285
▁added	-7286
usually	-7287
END	-7288
agram	-7289
slicing	-7290
universe	-7291
blacks	-7292
Corasick	-7293
arent	-7294
missed	-7295
Applying	-7296
crossed	-7297
inactive	-7298
rejected	-7299
Order	-7300
Large	-7301
interleave	-7302
melodies	-7303
reducible	-7304
allocation	-7305
▁si	-7306
▁curr	-7307
insens	-7308
worker	-7309
Separate	-7310
incident	-7311
toggling	-7312
collap	-7313
keyboard	-7314
ral	-7315
Rabin	-7316
violates	-7317
lives	-7318
mor	-7319
OP	-7320
▁="	-7321
aint	-7322
▁south	-7323
assigns	-7324
tw	-7325
duplicated	-7326
hum	-7327
simpler	-7328
elevation	-7329
cious	-7330
primal	-7331
Ger	-7332
sweet	-7333
List	-7334
▁city	-7335
mc	-7336
ug	-7337
Ford	-7338
solvable	-7339
onds	-7340
fills	-7341
failed	-7342
beak	-7343
▁ABC	-7344
iterates	-7345
slide	-7346
▁shift	-7347
oranges	-7348
bers	-7349
safety	-7350
seated	-7351
Breaking	-7352
▁numerator	-7353
mt	-7354
src	-7355
traps	-7356
gn	-7357
Record	-7358
uation	-7359
▁given	-7360
primality	-7361
widths	-7362
▁price	-7363
tanks	-7364
codeforces	-7365
ei	-7366
▁ax	-7367
batter	-7368
feasibility	-7369
eps	-7370
mini	-7371
doubles	-7372
shelves	-7373
▁player	-7374
procedure	-7375
+-	-7376
Taking	-7377
cessive	-7378
denoted	-7379
restrict	-7380
Draw	-7381
canceled	-7382
ku	-7383
#####	-7384
heart	-7385
sized	-7386
unlock	-7387
Substit	-7388
Fe	-7389
Dequ	-7390
ominator	-7391
insensitive	-7392
Cod	-7393
shoes	-7394
▁Bob	-7395
...),	-7396
ially	-7397
thereby	-7398
lexicographical	-7399
restore	-7400
completion	-7401
prizes	-7402
uce	-7403
jokes	-7404
pencil	-7405
router	-7406
zo	-7407
ayer	-7408
▁out	-7409
manip	-7410
sells	-7411
receives	-7412
▁xj	-7413
evict	-7414
schemes	-7415
Previous	-7416
bijection	-7417
prote	-7418
▁zero	-7419
growth	-7420
interleaved	-7421
Card	-7422
UFO	-7423
▁fixed	-7424
Calculation	-7425
docum	-7426
numbering	-7427
waste	-7428
Define	-7429
approximate	-7430
"(	-7431
pushes	-7432
everyone	-7433
park	-7434
Factorize	-7435
hacked	-7436
underscores	-7437
]:	-7438
Removing	-7439
ensation	-7440
conven	-7441
Parsing	-7442
tunnel	-7443
orderings	-7444
ham	-7445
iller	-7446
undreds	-7447
diamonds	-7448
▁_[	-7449
ferent	-7450
garden	-7451
specifier	-7452
abbreviation	-7453
ano	-7454
wealth	-7455
conquer	-7456
rix	-7457
Deque	-7458
supports	-7459
prioritize	-7460
sequentially	-7461
'',	-7462
HIT	-7463
hyper	-7464
▁print	-7465
cleared	-7466
reachability	-7467
▁AC	-7468
▁NA	-7469
▁+...+	-7470
▁	-7471
e	-7472
t	-7473
i	-7474
s	-7475
a	-7476
o	-7477
n	-7478
r	-7479
h	-7480
c	-7481
l	-7482
d	-7483
u	-7484
m	-7485
p	-7486
.	-7487
,	-7488
f	-7489
b	-7490
g	-7491
w	-7492
1	-7493
(	-7494
)	-7495
=	-7496
y	-7497
v	-7498
_	-7499
x	-7500
0	-7501
2	-7502
S	-7503
k	-7504
'	-7505
:	-7506
-	-7507
3	-7508
[	-7509
]	-7510
T	-7511
B	-7512
+	-7513
4	-7514
5	-7515
q	-7516
A	-7517
F	-7518
j	-7519
*	-7520
W	-7521
I	-7522
N	-7523
6	-7524
>	-7525
C	-7526
<	-7527
/	-7528
O	-7529
9	-7530
L	-7531
→	-7532
z	-7533
7	-7534
8	-7535
"	-7536
P	-7537
R	-7538
D	-7539
?	-7540
E	-7541
#	-7542
M	-7543
^	-7544
H	-7545
}	-7546
Y	-7547
{	-7548
X	-7549
K	-7550
`	-7551
G	-7552
≤	-7553
|	-7554
!	-7555
%	-7556
U	-7557
V	-7558
\	-7559
Q	-7560
$	-7561
²	-7562
—	-7563
;	-7564
&	-7565
J	-7566
Z	-7567
≡	-7568
≈	-7569
~	-7570
×	-7571
≥	-7572
π	-7573
	-7574
≠	-7575
⋅	-7576
’	-7577
θ	-7578
·	-7579
…	-7580
@	-7581
±	-7582
□	-7583
 	-7584
φ	-7585
³	-7586
∩	-7587
∪	-7588
μ	-7589
–	-7590
«	-7591
»	-7592
−	-7593
≦	-7594
■	-7595
α	-7596
√	-7597
“	-7598
”	-7599
​	-7600
λ	-7601
°	-7602
⊕	-7603
ö	-7604
‘	-7605
∈	-7606
σ	-7607
Δ	-7608
÷	-7609
─	-7610
¬	-7611
∑	-7612
 	-7613
С	-7614
τ	-7615
●	-7616
β	-7617
∞	-7618
⌊	-7619
⌋	-7620
⊙	-7621
⌈	-7622
⌉	-7623
○	-7624
ρ	-7625
∨	-7626
ε	-7627
←	-7628
└	-7629
á	-7630
∫	-7631
₁	-7632
├	-7633
∘	-7634
é	-7635
│	-7636
⊆	-7637
δ	-7638
š	-7639
↔	-7640
∧	-7641
γ	-7642
Σ	-7643
∀	-7644
ü	-7645
ő	-7646
´	-7647
с	-7648
⇒	-7649
∃	-7650
и	-7651
₂	-7652
è	-7653
½	-7654
⩽	-7655
ω	-7656
ψ	-7657
↓	-7658
ń	-7659
№	-7660
∅	-7661
•	-7662
️	-7663
η	-7664
✔	-7665
⁄	-7666
č	-7667
ḡ	-7668
∓	-7669
△	-7670
∗	-7671
™	-7672
⁴	-7673
★	-7674
ﬁ	-7675
∙	-7676
．	-7677
∏	-7678
¹	-7679
а	-7680
本	-7681
	-7682
∣	-7683
₀	-7684
☆	-7685
Γ	-7686
⊗	-7687
о	-7688
・	-7689
―	-7690
∉	-7691
А	-7692
е	-7693
：	-7694
ₙ	-7695
ℓ	-7696
Ж	-7697
↑	-7698
′	-7699
Φ	-7700
⁻	-7701
◦	-7702
の	-7703
⟨	-7704
⟩	-7705
解	-7706
説	-7707
（	-7708
）	-7709
※	-7710
⊂	-7711
カ	-7712
ド	-7713
ー	-7714
в	-7715
і	-7716
	-7717
Λ	-7718
き	-7719
な	-7720
割	-7721
合	-7722
％	-7723
­	-7724
û	-7725
Ω	-7726
Т	-7727
　	-7728
【	-7729
】	-7730
が	-7731
人	-7732
力	-7733
好	-7734
，	-7735
⊖	-7736
〃	-7737
ラ	-7738
т	-7739
ç	-7740
д	-7741
н	-7742
⁵	-7743
∠	-7744
	-7745
ó	-7746
Ψ	-7747
ι	-7748
М	-7749
О	-7750
м	-7751
р	-7752
†	-7753
⁰	-7754
ⁿ	-7755
⋯	-7756
イ	-7757
ナ	-7758
バ	-7759
リ	-7760
入	-7761
ﬀ	-7762
æ	-7763
₃	-7764
、	-7765
의	-7766
Å	-7767
В	-7768
✝	-7769
す	-7770
ダ	-7771
ム	-7772
ン	-7773
厘	-7774
垓	-7775
忽	-7776
成	-7777
流	-7778
漂	-7779
生	-7780
穣	-7781
χ	-7782
ч	-7783
ℝ	-7784
ち	-7785
に	-7786
り	-7787
を	-7788
Ç	-7789
à	-7790
â	-7791
ō	-7792
Π	-7793
ϕ	-7794
з	-7795
 	-7796
ₖ	-7797
≒	-7798
よ	-7799
ん	-7800
グ	-7801
フ	-7802
	-7803
ß	-7804
έ	-7805
ί	-7806
ο	-7807
ς	-7808
Х	-7809
ы	-7810
‫	-7811
⇨	-7812
◯	-7813
♪	-7814
え	-7815
し	-7816
ば	-7817
び	-7818
ゃ	-7819
ア	-7820
レ	-7821
伸	-7822
出	-7823
屋	-7824
彩	-7825
換	-7826
最	-7827
検	-7828
猫	-7829
短	-7830
種	-7831
算	-7832
置	-7833
距	-7834
閲	-7835
離	-7836
類	-7837
경	-7838
년	-7839
자	-7840
＜	-7841
¶	-7842
ı	-7843
Ξ	-7844
ж	-7845
й	-7846
л	-7847
п	-7848
א	-7849
⁶	-7850
℘	-7851
✅	-7852
✖	-7853
ⱼ	-7854
層	-7855
機	-7856
渺	-7857
澗	-7858
的	-7859
臾	-7860
計	-7861
階	-7862
ζ	-7863
к	-7864
х	-7865
э	-7866
∤	-7867
⊇	-7868
◎	-7869
た	-7870
で	-7871
る	-7872
각	-7873
３	-7874
Ã	-7875
ñ	-7876
ÿ	-7877
̄	-7878
г	-7879
я	-7880
₄	-7881
₉	-7882
℃	-7883
℉	-7884
∋	-7885
⎡	-7886
⎣	-7887
⎤	-7888
⎦	-7889
①	-7890
③	-7891
❌	-7892
。	-7893
さ	-7894
せ	-7895
そ	-7896
と	-7897
は	-7898
ふ	-7899
ま	-7900
れ	-7901
中	-7902
略	-7903
空	-7904
범	-7905
위	-7906
	-7907
À	-7908
Á	-7909
Ä	-7910
È	-7911
Ð	-7912
ä	-7913
þ	-7914
Ÿ	-7915
Н	-7916
₅	-7917
₋	-7918
ₘ	-7919
⇔	-7920
∭	-7921
≧	-7922
⋂	-7923
❤	-7924
「	-7925
」	-7926
い	-7927
う	-7928
か	-7929
く	-7930
け	-7931
